⋅the
⋅it
⋅and
⋅to
⋅is
⋅for
⋅this
⋅of
⋅not
⋅my
⋅but
⋅in
⋅was
⋅on
⋅that
⋅with
⋅have
⋅they
⋅so
⋅very
⋅as
⋅are
⋅you
⋅its
⋅like
⋅one
⋅be
⋅great
⋅good
⋅these
⋅them
⋅just
⋅would
⋅product
⋅had
⋅all
⋅out
⋅if
⋅use
⋅at
⋅up
⋅when
⋅will
⋅well
⋅get
⋅or
⋅me
⋅only
⋅from
⋅no
⋅work
⋅than
⋅too
⋅after
⋅really
⋅more
⋅time
⋅off
⋅what
⋅dont
⋅were
⋅because
⋅quality
⋅can
⋅love
⋅do
⋅has
⋅an
⋅im
⋅little
⋅fit
⋅about
⋅did
⋅bought
⋅nice
⋅didnt
⋅we
⋅other
⋅does
⋅much
⋅works
⋅even
⋅easy
⋅there
⋅back
⋅small
⋅your
⋅used
⋅got
⋅size
⋅price
⋅doesnt
⋅also
##s
⋅first
⋅buy
⋅some
⋅made
⋅am
⋅still
⋅now
⋅which
⋅put
⋅way
⋅two
⋅better
⋅case
⋅been
⋅how
⋅phone
⋅could
⋅came
⋅ordered
⋅book
⋅again
⋅over
⋅looks
⋅then
⋅received
⋅box
##ed
⋅pretty
##ing
⋅look
⋅light
⋅any
⋅ive
⋅money
⋅by
⋅however
⋅disappointed
⋅long
⋅using
⋅return
⋅recommend
⋅bit
⋅cant
⋅never
⋅item
⋅need
⋅see
⋅perfect
⋅make
⋅few
⋅hard
⋅color
⋅enough
⋅day
⋅worked
⋅right
⋅new
⋅down
⋅months
⋅before
⋅into
⋅while
⋅keep
⋅sure
⋅he
⋅big
⋅cute
⋅go
⋅cheap
⋅expected
⋅fine
⋅last
⋅order
⋅looking
⋅lot
⋅different
⋅same
⋅around
⋅tried
⋅read
⋅plastic
⋅amazon
⋅set
⋅she
⋅another
⋅old
⋅though
⋅broke
⋅thought
⋅top
⋅thing
⋅water
⋅her
⋅our
⋅purchased
⋅should
⋅through
⋅bad
⋅working
⋅arrived
⋅seems
⋅purchase
⋅super
⋅want
⋅know
⋅screen
⋅going
⋅feel
⋅think
⋅wear
⋅bag
⋅something
⋅hold
⋅definitely
⋅days
⋅material
⋅since
⋅stars
⋅far
⋅comfortable
⋅find
⋅side
⋅happy
⋅times
⋅come
⋅wish
⋅give
⋅without
⋅large
⋅take
⋅year
⋅hair
⋅wont
⋅worth
⋅easily
⋅wanted
⋅fits
⋅every
⋅their
⋅loved
⋅where
⋅many
⋅battery
⋅needed
⋅problem
⋅most
⋅makes
⋅able
⋅both
⋅try
⋅picture
⋅being
⋅broken
⋅once
⋅ok
⋅soft
⋅part
⋅took
⋅already
⋅wasnt
⋅cover
⋅together
⋅best
⋅weeks
##er
⋅away
⋅less
⋅seller
⋅month
⋅say
⋅getting
⋅package
⋅who
##y
⋅week
⋅sound
⋅thin
⋅smaller
⋅charge
⋅overall
⋅sent
⋅second
⋅nothing
⋅actually
⋅stay
⋅everything
⋅his
⋅inside
⋅said
⋅started
⋅clean
⋅reviews
⋅found
⋅open
⋅sturdy
⋅waste
⋅wouldnt
⋅gift
⋅longer
⋅place
⋅couple
⋅anything
⋅story
⋅maybe
⋅job
⋅isnt
⋅years
⋅end
⋅having
⋅brand
⋅almost
⋅issue
⋅design
⋅bottom
⋅piece
⋅returned
⋅help
⋅short
⋅seem
⋅thats
⋅yet
⋅half
⋅high
⋅black
⋅fast
⋅smell
##es
⋅liked
⋅replacement
⋅watch
⋅went
⋅loves
⋅comes
⋅colors
⋅ones
⋅may
⋅exactly
⋅tight
⋅apart
⋅several
⋅each
⋅gave
⋅install
⋅difficult
⋅review
⋅until
⋅trying
⋅wrong
⋅always
⋅car
⋅shipping
⋅beautiful
⋅buying
⋅cut
⋅dog
⋅probably
⋅perfectly
⋅why
⋅instead
⋅quite
⋅company
⋅completely
⋅unfortunately
⋅things
⋅daughter
⋅heavy
⋅next
⋅ill
⋅full
⋅stopped
⋅looked
⋅left
⋅three
⋅room
⋅quickly
⋅pieces
⋅star
⋅ever
⋅poor
⋅lights
⋅bottle
⋅strong
⋅under
⋅within
⋅id
##ers
⋅head
⋅white
⋅kind
⋅instructions
⋅night
⋅hours
⋅weight
⋅havent
⋅couldnt
⋅refund
⋅gets
⋅stick
⋅theyre
⋅people
⋅kids
⋅feels
⋅hand
⋅extra
⋅skin
⋅life
⋅son
⋅hot
⋅loose
⋅might
⋅says
⋅minutes
⋅reason
⋅bright
⋅pay
⋅service
⋅power
⋅turn
⋅packaging
⋅issues
⋅itself
##ly
⋅front
⋅low
⋅pair
⋅needs
⋅taste
⋅either
⋅fun
⋅real
⋅handle
⋅others
⋅missing
⋅advertised
⋅durable
⋅opened
⋅clear
⋅close
⋅returning
⋅home
⋅send
⋅guess
⋅air
⋅fabric
⋅otherwise
⋅charging
⋅damaged
⋅unit
⋅store
⋅expensive
⋅such
⋅youre
⋅fell
⋅dry
⋅customer
⋅extremely
⋅amazing
⋅dress
⋅those
⋅done
⋅original
⋅excellent
⋅glass
⋅band
⋅larger
⋅support
⋅reading
⋅least
⋅thick
##a
⋅metal
⋅charger
⋅kept
⋅else
⋅play
⋅paper
⋅products
⋅stuff
⋅due
⋅whole
⋅awesome
⋅point
⋅protector
⋅feet
⋅absolutely
⋅deal
⋅bigger
⋅someone
⋅blue
##al
⋅face
⋅mine
⋅cannot
⋅description
⋅bed
⋅fall
⋅house
⋅pack
⋅break
⋅here
⋅warm
⋅making
⋅husband
⋅lasted
⋅terrible
⋅replace
⋅batteries
⋅highly
⋅felt
⋅flimsy
⋅own
⋅described
⋅okay
⋅stand
⋅keeps
⋅ended
⋅camera
⋅supposed
⋅items
⋅cool
⋅hoping
⋅delivered
⋅shoes
⋅especially
⋅wash
⋅him
⋅decent
⋅update
⋅disappointing
⋅red
⋅us
⋅shirt
⋅holes
⋅during
⋅line
⋅must
⋅wearing
⋅button
⋅characters
⋅between
⋅run
⋅cable
⋅ago
⋅game
⋅parts
⋅tell
⋅quick
⋅hands
⋅seemed
⋅area
⋅change
⋅cost
⋅coffee
⋅baby
⋅horrible
⋅expect
⋅goes
⋅books
⋅door
⋅pain
⋅start
⋅idea
⋅let
⋅stuck
⋅plus
⋅paid
⋅pictures
⋅takes
⋅remove
⋅holds
⋅installed
⋅cord
⋅fan
⋅huge
⋅properly
⋅fact
⋅outside
⋅although
##o
⋅device
##able
⋅receive
⋅coming
⋅food
⋅sometimes
⋅today
⋅later
⋅iphone
⋅delivery
⋅medium
⋅value
⋅theres
##b
⋅problems
⋅amount
⋅hole
⋅anyone
⋅hope
⋅type
⋅wall
##ate
⋅lid
⋅pull
⋅dark
⋅strap
⋅taking
⋅twice
⋅bags
⋅christmas
⋅lost
⋅p
⋅touch
⋅shipped
⋅simple
⋅plug
⋅person
##ic
⋅move
⋅past
⋅add
⋅cracked
⋅flat
⋅rather
⋅thank
⋅noticed
##ation
⋅soon
⋅cup
⋅difference
⋅style
⋅usb
⋅ear
⋅care
⋅d
⋅useless
⋅excited
⋅myself
⋅series
⋅rubber
⋅tape
⋅usually
⋅free
⋅screws
⋅putting
⋅immediately
⋅regular
⋅length
⋅oil
⋅barely
⋅included
⋅flavor
⋅slightly
⋅space
⋅re
⋅app
⋅socks
⋅show
⋅solid
⋅giving
⋅cold
⋅rest
⋅card
⋅uses
⋅true
⋅smells
⋅expecting
⋅r
⋅turned
⋅movie
⋅decided
⋅seat
⋅unless
⋅pleased
⋅foot
⋅control
⋅doing
⋅finally
⋅pillow
⋅arent
⋅smooth
⋅table
⋅nicely
⋅shape
⋅four
⋅given
⋅heat
⋅screw
⋅contact
⋅please
⋅falling
⋅floor
⋅tiny
⋅lots
⋅stop
⋅zipper
⋅enjoyed
⋅normal
⋅easier
⋅multiple
⋅ripped
⋅ring
⋅wait
##ated
⋅brush
⋅cat
⋅switch
⋅wood
⋅fix
⋅photo
⋅leave
⋅headphones
⋅save
⋅believe
⋅recommended
⋅shoe
⋅ordering
⋅cheaply
⋅edges
⋅wide
⋅dogs
⋅condition
⋅figure
⋅saw
⋅except
⋅noise
⋅pocket
⋅paint
⋅chair
##en
##c
##e
⋅glad
⋅base
⋅favorite
⋅sides
⋅hour
⋅glue
⋅shows
⋅body
⋅carry
⋅sleep
⋅window
⋅cheaper
⋅packaged
⋅legs
⋅etc
⋅st
⋅family
⋅middle
⋅th
⋅frame
⋅replaced
⋅straight
⋅finish
⋅annoying
⋅clip
⋅tv
⋅straps
⋅author
⋅often
⋅machine
⋅remote
⋅purpose
⋅toy
⋅seen
⋅entire
⋅green
⋅holder
⋅uncomfortable
⋅thanks
⋅enjoy
⋅bent
⋅bar
⋅cards
⋅wife
⋅actual
⋅impressed
⋅opening
##l
⋅travel
⋅version
⋅buttons
⋅main
⋅connect
⋅option
⋅totally
⋅music
⋅l
⋅print
⋅helps
⋅holding
⋅charged
##i
⋅pad
⋅volume
⋅bottles
⋅pro
⋅pressure
⋅weird
⋅loud
⋅sizes
⋅pink
⋅tool
##le
##d
⋅shower
⋅sharp
⋅attached
⋅hear
⋅party
⋅defective
⋅forward
##in
⋅adjust
⋅spend
⋅neck
⋅non
⋅kit
⋅pump
⋅wore
⋅runs
⋅constantly
⋅scent
⋅trip
⋅sit
⋅interesting
⋅setting
⋅washed
⋅junk
⋅held
⋅t
⋅friend
⋅correct
⋅dropped
⋅computer
⋅seal
⋅happened
##ion
⋅satisfied
⋅belt
⋅c
##ating
⋅useful
⋅purchasing
⋅careful
⋅protection
⋅pictured
⋅covers
⋅leather
⋅along
⋅laptop
##est
⋅written
⋅lightweight
⋅compared
⋅similar
⋅filter
⋅built
⋅complaint
⋅inch
⋅glasses
⋅m
⋅protect
⋅video
⋅contacted
##it
##m
⋅worst
⋅running
⋅live
##t
⋅surprised
⋅mess
⋅experience
##g
⋅told
⋅mind
⋅anymore
⋅poorly
⋅g
⋅daily
⋅matter
⋅slow
⋅birthday
##or
⋅understand
⋅lock
⋅cleaning
⋅plan
⋅assemble
##et
⋅cause
⋅fairly
⋅level
⋅pants
⋅leaves
⋅child
⋅based
⋅worn
##h
⋅wonderful
⋅directions
⋅lower
⋅keeping
⋅impossible
⋅pop
⋅port
⋅pockets
⋅plugged
⋅spray
⋅single
⋅ch
⋅helpful
⋅match
⋅un
⋅hit
⋅weak
⋅information
⋅n
⋅awful
⋅apple
⋅sun
⋅board
⋅edge
##p
⋅xl
⋅writing
⋅arm
⋅damage
⋅rating
⋅near
⋅surface
⋅mount
⋅sticky
⋅ball
⋅gone
⋅kitchen
⋅system
⋅bulbs
⋅five
⋅complete
⋅connection
⋅wet
⋅container
⋅literally
⋅fully
⋅cap
⋅bra
⋅write
⋅everyone
⋅pages
⋅gives
⋅previous
⋅thinking
⋅number
⋅yes
⋅tea
⋅likes
⋅stiff
⋅waist
⋅results
⋅slide
⋅falls
⋅keyboard
⋅wire
##on
⋅morning
⋅online
⋅adhesive
⋅check
⋅upon
⋅hang
##ies
⋅warranty
⋅lbs
⋅dead
⋅hose
⋅standard
⋅closed
⋅key
⋅bulky
##age
⋅secure
⋅cups
⋅gotten
⋅snug
⋅helped
⋅friends
⋅kinda
##an
⋅playing
⋅throw
⋅shown
⋅feeling
⋅leak
⋅ipad
⋅function
⋅added
⋅inches
⋅late
⋅foam
⋅notice
⋅feature
⋅simply
⋅f
⋅photos
⋅v
##ment
##r
⋅bluetooth
⋅cables
⋅b
⋅safe
⋅sheets
⋅pick
⋅higher
⋅gold
⋅garbage
⋅mattress
⋅pen
##v
⋅storage
⋅process
⋅model
⋅drop
⋅total
⋅push
⋅mat
⋅ink
⋅sending
⋅gloves
⋅brown
##el
⋅summer
⋅ears
⋅accurate
⋅convenient
⋅appears
⋅stays
⋅third
⋅correctly
⋅comfy
##ting
⋅mouse
⋅everywhere
⋅grip
⋅hat
⋅trouble
⋅against
⋅sized
⋅date
##at
⋅eye
⋅somewhat
⋅man
⋅hopefully
⋅eyes
⋅basically
⋅speaker
⋅call
⋅turns
⋅note
⋅worse
⋅clearly
##id
⋅eat
⋅build
⋅desk
⋅trash
⋅led
⋅yellow
⋅thicker
⋅h
⋅slip
⋅honestly
⋅per
##ar
⋅changed
⋅onto
⋅boxes
⋅name
⋅frustrating
⋅follow
⋅ice
##n
⋅washing
⋅vacuum
⋅sweet
⋅rough
⋅press
⋅knife
⋅prefer
⋅sitting
⋅none
⋅installation
⋅sh
⋅stated
⋅sad
⋅suction
⋅school
⋅spent
⋅dirty
⋅waiting
⋅lol
##ve
⋅ends
⋅spot
⋅test
⋅soap
⋅office
⋅designed
⋅leg
⋅lose
⋅drink
⋅kid
⋅hate
⋅cats
⋅magnet
⋅backpack
⋅placed
⋅connected
⋅drive
⋅wrap
⋅suggest
⋅sort
⋅cases
##st
##f
⋅brands
⋅nd
⋅ran
##u
⋅bike
⋅clothes
⋅roll
⋅sticks
⋅course
⋅nearly
⋅corner
⋅adapter
⋅tools
⋅response
⋅mirror
⋅e
⋅effective
⋅figured
⋅available
⋅older
⋅normally
⋅sounds
⋅failed
⋅handy
⋅anyway
⋅fantastic
⋅wrist
⋅across
⋅pads
⋅wallet
⋅rain
##k
⋅hoped
⋅fresh
##is
⋅center
⋅fill
⋅velcro
⋅important
⋅double
⋅dust
⋅page
⋅post
⋅means
⋅realize
⋅cream
⋅zero
##les
⋅provided
⋅pool
⋅crack
##ie
⋅label
⋅died
⋅prime
⋅blade
⋅starting
⋅empty
⋅covered
⋅fingers
⋅above
⋅future
⋅fault
⋅removed
⋅pot
⋅position
⋅apply
⋅stretch
⋅unable
⋅natural
⋅recipes
⋅corners
⋅bulb
⋅display
⋅provide
⋅seconds
⋅sp
⋅allow
⋅continue
⋅printer
⋅arms
##ad
⋅leaks
⋅tip
⋅pre
⋅keys
⋅threw
⋅scratches
⋅chance
⋅saying
⋅tablet
⋅attach
⋅mouth
⋅walk
⋅texture
⋅leaked
⋅options
⋅heart
⋅opinion
⋅sl
⋅beware
⋅behind
⋅mostly
⋅ground
⋅hassle
⋅monitor
##ful
⋅manufacturer
⋅wireless
⋅pulled
⋅fake
⋅youll
⋅rate
⋅deep
##w
##ness
⋅showed
⋅character
⋅concept
⋅arrive
⋅addition
⋅happen
⋅snap
⋅everyday
⋅assembly
⋅daughters
⋅shut
⋅called
⋅hook
⋅sold
⋅phones
⋅lighter
⋅sets
⋅w
⋅clips
⋅bathroom
⋅yourself
⋅film
⋅sizing
⋅fire
⋅plenty
⋅powder
⋅seam
⋅pan
##ity
⋅despite
⋅recently
##ish
⋅possible
⋅hardware
⋅asked
⋅upset
⋅hanging
⋅email
⋅handles
⋅tank
⋅lasts
⋅sensitive
⋅cutting
⋅sorry
⋅mail
⋅places
⋅blanket
⋅weather
⋅avoid
⋅mom
⋅durability
⋅cords
⋅average
⋅steel
⋅crazy
⋅leaking
⋅leaving
⋅ship
⋅purse
⋅tree
⋅bother
⋅collar
⋅considering
⋅negative
⋅boots
⋅adjustable
##ling
⋅plot
##il
⋅bend
⋅narrow
⋅eventually
⋅wind
⋅mix
⋅o
⋅sink
⋅range
⋅fitting
##om
##as
⋅ready
⋅disappointment
⋅nose
⋅mask
⋅rip
⋅functional
⋅starts
⋅intended
⋅likely
##ot
⋅reach
⋅knew
⋅local
⋅tube
⋅children
⋅luck
⋅lamp
⋅shampoo
⋅winter
##ions
⋅world
⋅pattern
⋅fl
⋅audio
⋅separate
⋅self
⋅hurt
⋅pass
##ive
⋅attention
⋅heard
⋅quit
##ings
⋅shelf
⋅cotton
⋅obviously
⋅shorter
⋅elastic
⋅silver
⋅wig
⋅finger
⋅walking
##re
⋅business
##im
⋅followed
⋅costume
⋅chest
##ch
⋅truck
⋅sons
⋅tear
⋅crap
⋅wasted
##ur
⋅moving
⋅cr
##ine
⋅fair
⋅stories
⋅priced
⋅exact
⋅clock
⋅breaking
⋅tips
⋅settings
⋅liquid
⋅orange
⋅present
⋅duty
⋅beat
##ter
⋅realized
⋅anywhere
⋅form
⋅sheet
⋅wrapped
⋅dryer
⋅fold
⋅taken
⋅compact
⋅compliments
⋅areas
⋅teeth
⋅certainly
⋅charges
⋅funny
⋅step
⋅a
⋅height
⋅stock
⋅prevent
⋅stitching
⋅flow
⋅co
⋅choice
⋅china
⋅project
⋅nor
⋅tall
⋅bunch
##ary
⋅scratched
⋅construction
⋅perhaps
⋅truly
⋅wheel
⋅quiet
⋅variety
⋅features
⋅tastes
⋅lines
##per
⋅spots
##ical
⋅speed
⋅oh
⋅pens
⋅nails
##us
⋅bubbles
⋅sucks
⋅basic
##se
⋅wheels
⋅manual
⋅learn
⋅purple
⋅appear
⋅sadly
⋅positive
⋅devices
⋅j
⋅suppose
⋅setup
⋅mean
⋅comfort
⋅dried
⋅inexpensive
⋅toys
##um
⋅spring
⋅became
⋅wears
⋅count
⋅thinner
⋅bubble
⋅smart
⋅fixed
⋅consider
⋅bands
⋅period
⋅iron
⋅tie
⋅lack
⋅underneath
⋅waterproof
##led
⋅sticker
##ul
⋅sc
⋅suit
⋅packed
⋅cons
⋅sense
⋅minute
⋅special
⋅directly
⋅balls
⋅mistake
⋅whats
⋅s
⋅round
##pped
⋅ask
⋅image
⋅towel
##ps
⋅become
⋅caused
⋅grandson
⋅girl
⋅slim
⋅track
⋅bl
##ite
⋅rings
⋅whatever
##ates
⋅angle
⋅result
⋅complaints
⋅mini
##ty
##x
⋅jacket
⋅cushion
⋅packing
⋅worry
⋅sleeves
⋅scratch
⋅filled
⋅games
⋅proof
⋅sealed
##ved
⋅bath
⋅lay
##ll
⋅tighten
⋅materials
⋅mounting
⋅turning
⋅forever
##am
⋅lovely
⋅season
⋅ending
⋅action
⋅six
⋅samsung
##nt
⋅granddaughter
⋅pin
⋅effect
⋅aware
⋅odor
⋅pairs
⋅headset
⋅therefore
⋅owned
⋅rug
⋅chain
⋅listed
⋅controller
⋅earbuds
⋅envelope
⋅awkward
⋅fish
##pping
⋅tray
⋅breaks
⋅known
⋅gray
⋅speakers
⋅wires
⋅rd
⋅adorable
##ets
⋅tough
##ments
⋅allows
⋅lids
⋅beginning
⋅i
⋅ro
⋅hes
⋅finished
##ist
⋅magnetic
⋅reasonable
⋅lens
⋅personal
⋅motor
⋅sand
⋅words
⋅lighting
⋅mentioned
##ations
⋅protective
⋅string
⋅dim
⋅cell
⋅silicone
⋅pulling
⋅sweat
⋅rack
⋅bowl
##ens
⋅major
⋅seeing
⋅noticeable
⋅exchange
##ge
⋅initially
⋅plate
⋅oz
⋅butter
⋅solution
⋅living
⋅counter
⋅drill
⋅slight
⋅split
⋅alone
⋅stores
⋅unusable
⋅dollars
⋅effort
⋅temperature
⋅error
⋅grey
⋅stickers
⋅popped
⋅con
⋅weve
⋅nail
⋅biggest
⋅meant
⋅smelled
⋅certain
⋅happens
⋅access
⋅de
⋅bars
⋅k
⋅packs
⋅checked
⋅protectors
⋅installing
⋅repair
⋅throughout
##ce
⋅brushes
##ous
⋅tested
⋅se
⋅al
⋅early
⋅stainless
⋅ups
⋅oem
⋅view
⋅mode
⋅adult
⋅applied
⋅required
##ant
⋅dis
⋅watching
⋅firm
⋅caught
⋅snapped
⋅remember
⋅sensor
⋅credit
⋅burn
⋅cook
⋅portion
⋅guy
⋅incredibly
⋅user
⋅blades
⋅seams
⋅powerful
⋅insert
⋅boot
⋅sleeping
⋅previously
⋅ca
⋅stayed
⋅magnets
⋅cloth
⋅heavier
##z
⋅cuts
⋅wifi
⋅causing
⋅detail
⋅replacing
⋅moved
⋅plant
⋅mention
⋅chocolate
⋅torn
⋅mother
⋅dirt
⋅jack
##ill
⋅luckily
##ious
⋅seriously
⋅miss
##ph
⋅ingredients
##line
##ut
⋅trust
⋅bucks
⋅faster
⋅pros
⋅toe
⋅odd
⋅bring
⋅changing
##ves
⋅min
⋅wants
##ors
⋅beach
⋅offer
⋅padding
⋅application
⋅click
⋅grab
⋅brought
⋅lift
⋅additional
⋅shoulder
⋅rid
⋅catch
##ber
⋅include
##ving
⋅windows
⋅signal
⋅ha
##pl
⋅section
⋅shirts
##th
⋅finding
⋅factory
⋅lb
⋅yesterday
⋅prior
⋅shes
⋅disc
⋅grill
⋅thru
⋅receiving
##ure
⋅hooks
⋅trick
##ag
⋅peel
⋅pic
⋅shade
⋅radio
⋅expectations
⋅particular
##ged
⋅mic
⋅itll
⋅began
⋅wax
⋅gym
⋅filters
⋅hardly
⋅chart
⋅safety
⋅rust
⋅proper
⋅pet
##als
⋅misleading
⋅ease
⋅ft
⋅worried
⋅sign
⋅message
⋅sw
⋅gel
⋅makeup
⋅further
⋅themselves
⋅alot
⋅drain
⋅attractive
##os
⋅toddler
##ian
⋅cooking
⋅afraid
⋅melted
##cing
⋅lo
⋅cardboard
⋅imagine
⋅rock
⋅offered
⋅originally
⋅shiny
##ast
⋅bedroom
⋅flip
⋅carpet
⋅badly
⋅mold
⋅paying
⋅clasp
⋅market
⋅tend
⋅memory
⋅energy
⋅rear
⋅below
⋅colored
⋅shop
⋅grow
⋅stronger
⋅pillows
⋅coat
⋅removing
⋅missed
⋅lunch
##ins
⋅flexible
⋅art
⋅driving
⋅hopes
⋅wonder
##ance
⋅garage
⋅marks
⋅block
⋅heads
⋅bo
##ats
⋅complain
⋅ride
⋅bracelet
⋅earrings
⋅strip
⋅dull
⋅bolts
⋅wouldve
⋅sub
⋅alarm
⋅vendor
⋅towels
⋅dollar
⋅showing
⋅carrying
⋅picked
⋅promised
⋅young
⋅functions
⋅ridiculous
⋅guys
⋅wanting
⋅address
⋅website
⋅state
⋅friendly
⋅drops
⋅threads
⋅beyond
⋅shame
⋅darker
⋅necklace
##ars
⋅milk
⋅played
⋅videos
⋅steps
⋅plants
##ible
##me
⋅bass
⋅sleeve
⋅sister
⋅heel
⋅including
⋅apparently
⋅dishwasher
⋅healthy
⋅slides
⋅professional
⋅wedding
⋅provides
⋅elsewhere
⋅personally
⋅ton
⋅pounds
⋅res
⋅gun
##mer
⋅peeling
⋅bc
⋅puppy
⋅minor
⋅somewhere
⋅movies
⋅square
⋅awhile
⋅shorts
⋅reviewers
##ay
⋅calls
⋅appreciate
⋅moves
⋅chairs
⋅sugar
⋅strange
⋅respond
⋅motion
⋅pricey
⋅thread
⋅shipment
⋅compatible
⋅traveling
##ro
⋅visible
⋅arrival
⋅sits
⋅pc
⋅stops
⋅ad
⋅tore
⋅harder
⋅supply
⋅buyer
⋅tub
⋅chew
⋅connector
##bs
⋅wow
⋅honest
⋅downside
⋅camping
⋅gifts
⋅road
##ri
⋅states
⋅cleaned
⋅knock
⋅coverage
⋅wider
⋅oils
⋅mixed
##ra
⋅learning
⋅outdoor
⋅yr
⋅learned
⋅portable
⋅knee
⋅dislike
⋅performance
##kes
##ics
⋅cleaner
⋅washes
⋅waited
⋅furniture
⋅yard
⋅slippery
##pe
⋅stomach
##ake
##ons
⋅pl
⋅plugs
##ted
⋅returns
⋅record
⋅vehicle
⋅printed
⋅girls
⋅halloween
⋅containers
⋅bummer
⋅word
⋅doubt
⋅drying
⋅rose
⋅stain
⋅toes
⋅vibrant
⋅recieved
⋅basket
⋅info
⋅ability
⋅chose
⋅thus
⋅sell
⋅class
⋅woman
##ac
⋅reliable
⋅surprise
⋅en
⋅software
⋅neither
⋅caps
⋅pills
⋅usual
⋅par
⋅bolt
##ise
##ol
⋅refunded
##ble
⋅tho
⋅folded
⋅affordable
##be
⋅electric
⋅twist
⋅gas
⋅sticking
⋅youtube
⋅faded
⋅draw
⋅necessary
⋅require
⋅women
⋅zip
⋅blend
⋅somehow
⋅guide
⋅via
⋅worthless
##ator
⋅sho
⋅pins
⋅salt
⋅letters
⋅numbers
⋅dvd
⋅ruined
⋅chemical
⋅assembled
⋅glove
⋅te
⋅changes
⋅batch
⋅specifically
⋅enjoyable
⋅list
⋅pole
⋅walmart
⋅minimal
⋅packages
⋅fragile
⋅skirt
⋅eating
⋅various
⋅shot
⋅usable
⋅tag
##ters
⋅ways
⋅cans
⋅burned
⋅dec
⋅reader
⋅straw
⋅force
⋅gonna
⋅diet
⋅jar
⋅drawer
⋅rod
⋅interest
##ied
⋅research
⋅dr
⋅mar
⋅whether
⋅mm
⋅zippers
⋅hung
⋅micro
⋅win
⋅sliding
⋅cd
⋅plain
##ane
⋅term
⋅details
⋅specific
⋅blow
⋅listen
⋅causes
⋅ports
⋅candy
⋅snow
##ab
⋅br
⋅talk
##ep
⋅coating
⋅toilet
⋅ankle
⋅alternative
⋅strength
⋅layer
⋅outlet
⋅reset
⋅brightness
##ap
⋅practice
##ips
⋅improve
⋅softer
⋅transfer
⋅individual
##and
⋅driver
⋅boy
⋅leggings
⋅ins
⋅max
⋅limited
⋅clothing
⋅mis
⋅cooler
⋅weekend
⋅stains
⋅shell
##em
##ized
⋅trim
##ore
⋅lining
⋅mid
⋅choose
##king
⋅improvement
⋅frequently
⋅workout
##ip
⋅adding
⋅according
##ced
⋅unlike
⋅pouch
⋅release
⋅carefully
⋅lip
⋅romance
⋅inner
⋅glued
⋅plates
⋅stylish
⋅reorder
⋅rolls
⋅forget
⋅strips
⋅unhappy
⋅bummed
⋅shrink
⋅typical
⋅cabinet
⋅vinyl
⋅collection
⋅conditioner
⋅false
⋅types
⋅tops
⋅wh
⋅tent
⋅width
##ms
⋅slowly
⋅saved
⋅mounted
⋅claim
##ging
⋅cars
⋅buckle
⋅grand
⋅kindle
⋅loss
⋅tired
⋅bristles
⋅novel
⋅mechanism
⋅socket
⋅couch
##ages
⋅destroyed
⋅requires
⋅exp
⋅boyfriend
⋅general
##lling
##ry
⋅protected
⋅comment
⋅li
##ct
⋅suck
⋅outer
⋅essential
⋅thrown
⋅washer
⋅regret
⋅interested
⋅shattered
⋅lotion
⋅scrub
⋅stretchy
⋅vacation
##ke
⋅fitbit
⋅pill
##ger
⋅latch
##ver
⋅bonus
⋅following
⋅beautifully
⋅glow
##ines
⋅thickness
⋅razor
⋅polish
⋅cake
⋅crushed
⋅player
⋅cartridge
⋅code
⋅harness
⋅static
⋅attachment
⋅stable
⋅delicious
⋅extend
⋅beads
⋅moment
⋅vent
⋅direct
⋅mug
⋅degrees
⋅boring
⋅age
⋅chips
##dy
⋅concerned
⋅wise
⋅gl
⋅ind
⋅tracking
##ider
⋅seeds
⋅backing
⋅request
⋅cameras
⋅securely
⋅bottoms
⋅doors
⋅pour
⋅gap
⋅till
⋅text
⋅tra
⋅flashlight
⋅confusing
⋅compartment
⋅clamp
⋅butt
⋅unique
⋅gear
⋅ac
⋅garden
⋅slot
⋅mesh
⋅valve
⋅moisture
⋅spare
⋅po
⋅sole
⋅event
⋅cracks
⋅jeans
⋅markers
⋅lit
⋅maker
⋅chargers
⋅sock
⋅flash
⋅chipped
##ify
⋅shoulders
⋅voice
⋅lets
⋅ugly
⋅umbrella
⋅points
⋅residue
⋅create
⋅compression
⋅search
⋅timer
⋅compare
##ward
⋅messy
⋅ab
⋅operate
⋅current
##ire
⋅loop
⋅overpriced
⋅shelves
⋅mark
⋅god
⋅cra
⋅flaw
⋅content
⋅solar
⋅tri
⋅answer
⋅dish
⋅lasting
⋅feed
⋅comfortably
⋅jewelry
⋅currently
⋅usage
⋅nuts
⋅puzzle
⋅health
##ord
⋅becomes
⋅relief
⋅king
⋅measure
⋅fans
⋅fail
⋅cl
⋅antenna
⋅dash
⋅planning
⋅labels
⋅sex
##bing
⋅cart
⋅pics
⋅appearance
⋅tur
##ent
⋅fo
⋅panel
⋅internet
⋅act
⋅tabs
⋅english
⋅constructed
⋅developed
⋅law
⋅applying
⋅adjustment
⋅dad
⋅frustrated
⋅fruit
⋅emailed
⋅alright
⋅fly
⋅direction
⋅cre
⋅units
##ple
⋅question
⋅brighter
##ined
⋅outfit
⋅accessories
⋅flattering
⋅roller
⋅fat
⋅tad
⋅fur
⋅questions
⋅closet
⋅overnight
⋅galaxy
⋅background
⋅liner
##nd
⋅youd
⋅copy
##ash
⋅sweater
⋅brother
⋅selling
⋅earlier
⋅situation
⋅sat
⋅lashes
⋅program
⋅lead
⋅reached
⋅blood
⋅randomly
⋅measurements
⋅upper
⋅def
⋅throwing
⋅gross
⋅drag
⋅speak
⋅treat
⋅besides
⋅bits
⋅dent
⋅ta
⋅relatively
⋅resistant
⋅su
⋅load
⋅pencil
⋅cast
##ming
⋅cont
⋅balloons
⋅explain
⋅rated
⋅site
⋅talking
⋅begin
⋅bill
⋅y
⋅temp
⋅macbook
⋅protects
⋅sk
⋅sight
⋅possibly
⋅policy
⋅meet
⋅knows
⋅comp
⋅em
⋅deck
⋅burning
##ang
⋅dist
⋅flavors
⋅risk
⋅smashed
⋅mystery
⋅spending
⋅bump
⋅shaped
⋅fallen
⋅focus
⋅extended
⋅buds
⋅timely
⋅engine
⋅chip
⋅microphone
⋅warning
⋅accidentally
⋅thumb
⋅kick
⋅tech
⋅painted
⋅auto
##out
##if
⋅distance
⋅exposed
⋅promptly
⋅tightly
##ven
⋅fitted
⋅deliver
⋅curtain
⋅training
⋅helping
##ering
⋅asking
⋅serious
⋅allowed
⋅qu
⋅losing
⋅cross
⋅entertaining
⋅practical
⋅neat
⋅anticipated
##qu
##uck
⋅lenses
##ured
⋅tighter
##ia
⋅drinking
##less
⋅stretched
⋅location
⋅logo
⋅appeared
⋅instruction
⋅sellers
⋅entirely
⋅obvious
⋅wine
⋅bracket
⋅requested
⋅slots
⋅com
⋅trips
⋅strings
⋅mod
⋅stone
⋅smoothly
⋅heating
⋅pops
⋅spin
⋅data
⋅covering
##te
⋅common
⋅defect
⋅faulty
⋅sewn
⋅gr
##dle
##ier
⋅wipe
⋅upgrade
⋅dented
##ig
##ict
⋅sleek
⋅absolute
⋅stupid
⋅discovered
⋅aluminum
⋅lint
⋅ideal
⋅floors
⋅digital
⋅customers
⋅connectors
⋅tw
⋅dishes
##ally
⋅bugs
##els
⋅joke
⋅history
⋅candle
⋅oily
⋅whenever
⋅tasted
##ong
⋅closer
##iz
⋅gorgeous
⋅locks
⋅particularly
⋅projects
##ts
⋅squ
⋅vs
⋅plays
⋅decor
##med
⋅suggested
⋅flag
⋅wake
⋅men
##ice
⋅cartridges
⋅google
⋅account
⋅ties
⋅protein
##ically
⋅occasionally
⋅housing
⋅female
⋅colorful
##ows
⋅charm
##ck
⋅net
⋅station
⋅download
⋅adjusted
⋅straighten
⋅litter
⋅eggs
##ize
##ular
⋅experienced
⋅shift
##pt
⋅candles
⋅pushed
⋅random
##ade
⋅nicer
⋅classic
⋅functionality
##ky
⋅headphone
⋅rot
⋅separately
⋅tail
⋅serves
⋅rolling
⋅file
⋅standing
⋅stands
⋅rel
⋅rec
⋅jam
##ately
⋅wipes
⋅mins
⋅laundry
⋅edit
⋅arch
⋅att
⋅hdmi
⋅switched
⋅nozzle
⋅regardless
⋅pulls
⋅diaper
⋅di
⋅leash
⋅fridge
⋅designs
⋅connects
⋅balance
⋅extension
⋅bow
⋅blocks
⋅tire
⋅cho
⋅lab
##ered
⋅gentle
⋅upside
##ert
##op
⋅collect
⋅tab
⋅sale
⋅cal
⋅boys
⋅tends
⋅knowing
##co
⋅faucet
⋅sick
⋅attempt
⋅squeeze
⋅acting
⋅uneven
⋅wooden
⋅ten
##sh
⋅undone
##ess
⋅crooked
⋅movement
⋅lacking
⋅greasy
⋅source
⋅ahead
⋅grind
⋅scale
⋅equipment
⋅tun
⋅enjoying
⋅bowls
⋅flowers
##ining
⋅depending
⋅bread
⋅saving
⋅don
⋅wrinkles
⋅storyline
⋅holders
⋅tan
⋅guard
⋅shopping
⋅backup
⋅ti
⋅reg
⋅formula
⋅comb
⋅doll
⋅lace
⋅watched
⋅gra
⋅filling
⋅contents
⋅constant
⋅printing
⋅july
⋅tap
⋅sensitivity
⋅lemon
⋅listing
⋅spread
⋅american
⋅levels
⋅unplug
⋅dimensions
##ric
⋅pleasant
⋅niece
⋅building
⋅replacements
⋅theyll
⋅walls
⋅advertising
⋅adds
##ir
⋅towards
⋅updated
⋅hooked
⋅laser
⋅frames
⋅die
##board
⋅shave
##ide
⋅cookbook
⋅chicken
⋅wiring
⋅gaming
⋅security
⋅dri
⋅flight
⋅improved
⋅cam
⋅smoke
⋅mo
⋅accident
⋅refill
⋅painful
⋅wrote
⋅adequate
⋅noisy
⋅offers
⋅grade
⋅ed
⋅stress
##ides
⋅custom
⋅march
##ma
⋅aspect
⋅desired
⋅chinese
⋅forth
⋅spilled
⋅surprisingly
⋅suitable
⋅expired
⋅vis
⋅advice
##ably
⋅rep
⋅thankfully
⋅nope
⋅le
⋅detect
⋅loosen
⋅bust
⋅toothbrush
##ances
⋅taped
⋅inter
⋅glitter
⋅channels
⋅drinks
⋅miles
##ses
⋅spill
⋅dig
##ude
⋅adults
⋅loving
⋅expand
⋅concern
##ition
⋅reasons
⋅aside
⋅depth
⋅listening
⋅connecting
⋅nut
⋅jo
##ans
⋅shake
⋅coloring
⋅kill
⋅matches
⋅claims
⋅knob
⋅teen
⋅orders
##ard
⋅ph
⋅fragrance
⋅generally
⋅willing
⋅shine
⋅degree
⋅assume
⋅boat
##ak
⋅capacity
⋅cor
⋅belly
⋅link
##ges
⋅tricky
⋅pinch
⋅instant
⋅affect
⋅nephew
⋅authors
⋅realistic
⋅drawers
⋅passed
⋅seats
⋅tone
⋅knives
⋅controls
##are
⋅dissatisfied
⋅perform
⋅meaning
⋅mainly
⋅comforter
⋅nights
⋅maintain
⋅itchy
⋅network
⋅organized
⋅invest
⋅pure
⋅busted
⋅continues
⋅incorrect
⋅hide
⋅thrilled
⋅werent
⋅twists
⋅holster
⋅warped
⋅images
⋅town
⋅slippers
⋅bulk
⋅juice
⋅instantly
⋅title
⋅liking
⋅active
⋅typically
⋅str
⋅animals
⋅closure
⋅prints
⋅pushing
⋅cycle
⋅porch
⋅interior
⋅hell
⋅accept
⋅weigh
⋅casual
⋅dra
⋅target
⋅rolled
⋅mild
⋅reasonably
⋅pipe
⋅mac
⋅delicate
⋅dock
⋅steam
⋅headache
⋅pound
⋅microwave
⋅human
⋅lives
⋅recipe
⋅separated
⋅patch
⋅thoroughly
⋅modern
⋅consistency
⋅slips
##ures
⋅impact
##ory
⋅flap
⋅stack
⋅electrical
⋅hrs
⋅tires
⋅heater
⋅stones
⋅navy
⋅slipping
⋅apps
⋅messed
⋅tons
⋅skeptical
⋅initial
##orm
##ick
⋅tile
⋅riding
⋅intact
⋅automatically
⋅jump
⋅telling
##ub
⋅posted
⋅significantly
⋅folds
##ces
⋅forgot
⋅router
⋅serve
⋅dries
⋅wished
⋅rope
⋅needing
⋅knees
⋅spl
⋅leds
⋅ban
⋅grass
##bed
⋅opens
⋅ver
⋅bud
⋅war
⋅prepared
⋅sewing
⋅bur
⋅hasnt
⋅acceptable
⋅wobbly
⋅met
##eds
⋅hp
⋅brackets
⋅fe
⋅chewed
⋅cubes
⋅dispenser
##ned
##ries
⋅report
⋅terribly
⋅compartments
⋅laugh
⋅z
⋅complicated
⋅bird
⋅significant
⋅flush
⋅curtains
⋅reply
⋅emails
⋅drivers
⋅shock
⋅hairs
⋅helmet
##vel
⋅receiver
⋅padded
##nder
##cks
⋅growing
⋅apartment
⋅consistent
⋅regularly
⋅smallest
⋅cur
⋅contacting
⋅ceiling
⋅laying
⋅reference
⋅breeze
⋅treats
⋅guessing
⋅wrench
⋅sm
⋅example
⋅pr
##und
⋅budget
⋅output
⋅rub
⋅jars
⋅theyve
⋅cage
⋅locking
⋅dangerous
⋅chapter
⋅drone
⋅sore
⋅multi
⋅popping
⋅warmer
⋅produce
⋅copper
⋅sunglasses
⋅stroller
⋅genuine
⋅carrier
⋅ass
##ature
⋅youve
⋅impression
⋅vision
⋅dial
⋅theyd
⋅consistently
##av
##mp
⋅tears
##ient
⋅songs
⋅painting
⋅staying
⋅happening
⋅breast
⋅oven
⋅scissors
⋅input
⋅remain
⋅rarely
⋅trigger
⋅meal
##ile
⋅manner
⋅bin
⋅tr
##ays
⋅projector
⋅hits
⋅taller
⋅stained
⋅returnable
⋅screwed
⋅cheese
⋅skip
⋅sponge
##j
⋅spout
⋅pleasantly
⋅underwear
##pper
⋅pans
⋅terms
##ase
⋅powered
⋅pixel
⋅placing
⋅managed
⋅ev
⋅adjusting
⋅assumed
⋅snaps
⋅costs
⋅prom
⋅traditional
##sing
⋅hips
⋅gum
⋅purposes
⋅combination
⋅sturdier
⋅dye
⋅decide
⋅overly
##int
⋅attempted
⋅gri
⋅relationship
⋅attachments
⋅whatsoever
⋅marked
##ified
⋅absorb
⋅tracker
⋅sd
⋅sided
⋅mats
⋅uns
⋅tasting
⋅gate
⋅connections
##ug
⋅ma
⋅blew
⋅searching
⋅closing
⋅pressed
⋅stove
⋅scam
⋅babies
⋅suddenly
##cent
##vers
⋅fingerprint
⋅cancel
⋅favor
⋅language
⋅tablets
⋅nowhere
⋅environment
⋅gauge
##ery
⋅internal
⋅si
⋅numerous
⋅feeder
⋅headband
##all
⋅meat
⋅difficulty
⋅purchases
##ater
##uff
⋅exercise
⋅recharge
⋅opt
⋅patterns
⋅scratchy
⋅potential
##ue
##day
##fl
⋅raised
##time
⋅gu
⋅womens
⋅disgusting
⋅clim
⋅rem
⋅scenes
⋅preferred
⋅increase
##io
⋅burnt
⋅patio
⋅lean
⋅ret
⋅cent
##ace
⋅alcohol
⋅feedback
⋅responded
##iss
⋅peanut
⋅fr
⋅pots
##ds
⋅resistance
⋅protecting
⋅ex
⋅husbands
⋅labeled
⋅grinder
⋅recording
⋅april
⋅authentic
⋅unravel
##ning
⋅picky
⋅fashion
⋅poles
⋅comments
⋅sexy
⋅dropping
⋅effects
⋅yoga
⋅tubes
⋅handling
⋅share
##ou
⋅hated
⋅wondering
⋅fancy
⋅busy
⋅hiking
##ability
⋅appropriate
⋅father
⋅chemicals
⋅register
⋅tre
⋅surgery
⋅lined
##iv
⋅tilt
⋅vanilla
⋅success
⋅cozy
⋅queen
⋅swing
##ared
⋅conf
⋅removable
⋅che
⋅tries
⋅male
⋅wrapping
⋅wrinkled
⋅android
⋅diffuser
⋅screens
⋅parents
⋅lips
⋅grocery
⋅skinny
⋅flower
⋅infl
⋅adhere
⋅includes
⋅amazons
⋅fight
##nel
⋅contain
⋅vibration
⋅xs
⋅continued
⋅measured
⋅punch
⋅brace
⋅eligible
⋅cracking
⋅contains
⋅web
⋅diameter
⋅models
⋅struggle
⋅sa
⋅rechargeable
⋅bank
⋅evenly
##ased
⋅lg
⋅detailed
⋅versatile
⋅cookies
⋅tearing
⋅deeper
⋅louder
⋅freezer
⋅responsive
⋅wand
⋅hood
⋅manufacturing
⋅ref
⋅halfway
⋅stored
⋅hinge
⋅ultimately
⋅secured
⋅sal
⋅reduce
⋅tension
⋅ir
⋅chrome
⋅tasty
⋅meh
⋅college
⋅blender
⋅sew
⋅gain
⋅surfaces
##ft
⋅pods
⋅foods
⋅rubbing
⋅june
⋅tells
⋅solved
⋅trailer
⋅final
⋅sol
⋅hearing
⋅tin
##ea
⋅anyways
⋅accessory
⋅country
⋅recent
⋅drawback
⋅scared
⋅spoon
⋅inserts
⋅wasting
⋅spark
⋅elegant
⋅el
⋅selection
⋅matte
⋅sooner
⋅coconut
⋅subject
⋅privacy
⋅unlock
⋅locked
⋅fortunately
⋅recognize
⋅agree
⋅admit
⋅vest
⋅quantity
⋅grease
⋅errors
⋅blind
⋅birds
⋅indoor
⋅diapers
⋅january
⋅tripod
##ibility
⋅suspect
##ach
##ices
⋅fishing
⋅swallow
⋅giant
⋅pencils
⋅reads
⋅picks
⋅organic
⋅techn
⋅december
⋅refurbished
⋅breaker
##ial
⋅irritating
⋅keto
⋅solve
⋅younger
⋅lucky
⋅squeak
⋅stripped
⋅drilled
⋅needless
⋅planned
⋅flying
⋅allowing
⋅pregnant
⋅hence
⋅outstanding
⋅letter
⋅ripping
⋅hem
⋅outlets
##ative
##ually
⋅weld
⋅hurts
⋅earbud
⋅pe
⋅trap
⋅doctor
⋅fear
##ust
⋅mist
⋅august
⋅efficient
⋅curl
##iner
##lor
⋅bleed
⋅ensure
⋅notes
⋅log
##og
⋅soaked
⋅exc
⋅kinds
⋅group
##art
⋅dies
⋅breathable
##ues
⋅capsules
⋅gallon
⋅shaft
⋅er
⋅tossed
⋅aw
⋅cushions
⋅rubbed
⋅stream
⋅guitar
⋅ugh
⋅reception
⋅evening
##its
⋅xxl
⋅ho
⋅crappy
⋅field
⋅soften
⋅appreciated
⋅snag
⋅bang
⋅testing
⋅incredible
⋅files
⋅supplement
##lo
##way
##ual
##ner
⋅happier
⋅touched
⋅wired
⋅straws
##ples
⋅truth
⋅brief
⋅soak
⋅rich
⋅sounded
⋅attempts
⋅ag
##up
⋅fluffy
⋅torso
##work
⋅picking
⋅sports
##ute
⋅lowest
⋅tags
⋅calendar
⋅cance
⋅noted
⋅panels
⋅manually
⋅lesson
⋅letting
⋅scoop
⋅anti
⋅shouldve
⋅toast
⋅dissapointed
⋅magic
⋅hero
⋅fade
⋅baggy
⋅repl
⋅sync
##ress
⋅wonderfully
⋅animal
⋅park
⋅readers
⋅rice
⋅beginner
##sed
⋅spe
⋅supplier
⋅girlfriend
⋅massage
##ight
⋅hangers
##ny
⋅mint
⋅reordered
##un
⋅tightening
⋅predictable
⋅ideas
⋅existing
⋅beep
⋅rods
⋅defin
⋅mop
⋅club
⋅bun
⋅meets
⋅yeah
⋅mad
##ock
⋅shallow
⋅folks
⋅alexa
⋅tangled
⋅lie
⋅curved
⋅cleans
⋅canvas
⋅bug
⋅egg
⋅pa
⋅workouts
⋅puts
##ain
⋅smelling
⋅backwards
⋅land
⋅conditions
⋅ser
⋅informative
⋅october
##ency
⋅hangs
⋅stri
⋅identical
⋅enjoys
⋅study
⋅luggage
⋅mobile
⋅curve
⋅fil
⋅opener
⋅dealing
⋅rocks
##one
⋅fin
⋅ste
⋅inst
##ility
⋅mens
⋅bras
⋅opposite
⋅stale
⋅tempered
⋅moisturizer
⋅convenience
##ided
⋅stink
⋅marker
⋅backs
⋅dents
⋅supported
⋅tint
⋅dump
⋅swimming
##tle
⋅bumper
##ading
##ome
⋅channel
⋅buck
⋅ar
⋅scratching
⋅shocked
⋅earphones
⋅penny
⋅challenging
⋅brittle
⋅des
⋅suspense
⋅ur
⋅traps
⋅rash
⋅drawing
⋅blurry
⋅manage
⋅excess
⋅closely
⋅limit
⋅usa
⋅bi
⋅soil
⋅brick
##ail
⋅inflate
⋅exciting
⋅switching
⋅external
##ked
⋅otterbox
⋅slid
⋅ra
##ign
##ware
⋅upright
⋅shit
##book
⋅mounts
##gle
⋅dozen
⋅asleep
⋅unfortunate
⋅assuming
⋅lil
⋅weights
⋅clump
⋅windshield
⋅unscrew
⋅shortly
⋅shield
⋅peeled
⋅impressive
##ration
⋅impro
⋅stamp
⋅members
⋅kickstand
⋅greatest
⋅organizer
⋅bare
⋅shoot
⋅served
##by
⋅fails
⋅operation
⋅development
⋅understanding
⋅method
⋅shed
⋅scalp
⋅mascara
##ld
⋅swim
⋅sta
##uted
⋅inflated
⋅brass
⋅amp
⋅crystal
⋅signs
⋅profile
⋅advise
⋅pets
⋅refused
⋅individually
⋅highest
⋅silly
⋅bull
⋅tightened
⋅news
⋅bending
⋅lifting
⋅beauty
⋅allergic
##ising
⋅roast
⋅heats
⋅inconvenient
⋅flaws
⋅loses
⋅attract
⋅jeep
⋅switches
⋅classroom
⋅insight
⋅duvet
⋅challenge
⋅slick
⋅links
⋅lightning
⋅acne
⋅sufficient
##ud
⋅rusted
⋅snack
⋅rotate
⋅song
⋅curls
⋅touching
⋅element
⋅breath
⋅students
⋅nursing
⋅hub
⋅quicker
⋅rinse
##ifier
##ired
⋅brake
⋅benefit
⋅pressing
⋅facing
⋅rim
⋅loops
⋅resolved
##ited
⋅sunlight
⋅saves
⋅heels
⋅team
⋅babys
⋅prompt
⋅thermometer
⋅sharpen
⋅dot
⋅tomorrow
⋅ankles
⋅tooth
⋅row
⋅yo
⋅warehouse
##ional
⋅creates
⋅prop
⋅beard
⋅chalk
⋅additionally
⋅dresses
⋅ridiculously
⋅stra
⋅blank
⋅resolution
⋅mailbox
⋅overhe
⋅boards
⋅holiday
⋅lady
⋅comparison
⋅represent
⋅grips
⋅guest
⋅cuff
⋅manufacturers
⋅tracks
⋅fabulous
⋅brew
⋅measuring
⋅drives
⋅shuts
⋅hidden
⋅sections
⋅toner
⋅cabinets
⋅ate
⋅burns
##atter
⋅supports
⋅perfume
⋅chapters
⋅tuck
⋅seals
⋅highlight
⋅indicator
⋅outdoors
⋅baking
⋅sprayer
⋅asap
⋅float
##key
⋅permanent
⋅sus
⋅trimmer
⋅mixing
⋅screwdriver
⋅develop
⋅emergency
##umb
⋅buyers
⋅diamond
⋅sandals
⋅vertical
⋅beam
⋅checking
⋅layers
⋅slipped
⋅drip
⋅indicated
##rop
⋅companies
⋅components
⋅melt
⋅bucket
⋅pup
⋅childs
##amp
##ium
⋅factor
⋅sheer
##ike
##atic
⋅reaction
⋅notebook
⋅handed
⋅graphics
⋅fir
⋅absorbent
⋅hey
⋅contained
⋅floss
⋅horribly
⋅annoyed
##ack
⋅unacceptable
##ex
⋅leads
⋅blown
⋅lawn
##my
⋅glare
⋅bends
⋅plush
⋅bumps
⋅starter
⋅matched
⋅collaps
⋅transport
⋅curly
⋅rollers
##land
⋅involved
⋅storing
⋅saver
⋅slept
⋅damn
⋅bone
⋅tied
⋅needle
⋅fitness
##ather
⋅folding
⋅theme
⋅reality
⋅quarter
⋅flo
⋅adapters
⋅notch
⋅scan
⋅document
⋅sim
⋅teach
⋅mag
⋅handled
⋅thighs
⋅gasket
⋅inf
⋅reviewer
⋅nasty
⋅capt
⋅hanger
⋅differently
##side
⋅suff
⋅char
⋅decoration
⋅fence
⋅wa
⋅defeats
⋅toler
⋅toss
⋅belie
⋅hinges
⋅walked
⋅task
⋅planner
⋅beginners
⋅refrigerator
⋅du
##set
⋅rigid
##oo
⋅tissue
⋅retail
##au
##asing
⋅fog
⋅watches
⋅shaving
⋅longevity
⋅mechan
⋅stuffed
⋅confused
##ppers
⋅transit
⋅boost
⋅controllers
⋅nervous
⋅laces
⋅hesitant
⋅steady
⋅placement
⋅strongly
⋅console
⋅neighbor
⋅wi
⋅polyester
⋅hitting
⋅supplied
⋅format
⋅camp
⋅knocked
⋅sprayed
⋅bitter
⋅flex
⋅bite
⋅concrete
⋅mediocre
⋅couldve
⋅crisp
⋅fluff
⋅topper
##rated
##ried
⋅physical
⋅functioning
⋅ours
⋅har
⋅death
##ler
⋅newborn
⋅shades
⋅packets
⋅attaches
⋅percent
##ath
##ination
⋅sag
⋅structure
⋅ribbon
⋅serving
⋅flies
⋅pod
##ci
⋅writer
⋅assist
⋅shedding
⋅regarding
⋅seed
⋅beans
⋅february
⋅bench
⋅trays
⋅vary
⋅unexpected
##ense
⋅trees
⋅disconnect
⋅defl
##asp
⋅pepper
##ls
##ract
⋅train
⋅nylon
##air
⋅extreme
⋅silky
⋅periods
⋅bible
⋅boun
⋅cooling
##ises
⋅walks
⋅suitcase
⋅bro
⋅disappoint
⋅europe
⋅november
##own
⋅sn
⋅frozen
⋅album
⋅bat
⋅fasten
##ption
⋅majority
⋅maneuver
⋅surround
⋅pant
⋅hi
⋅resolve
⋅generic
⋅pit
##ding
⋅grew
##ued
⋅xbox
⋅tongue
⋅roomy
⋅unpack
⋅grown
⋅backyard
⋅forced
##ying
⋅cash
⋅benefits
⋅lightly
⋅reduced
⋅choices
⋅street
⋅inserted
##ashes
⋅fed
⋅paired
⋅accent
⋅path
##ished
⋅intent
⋅matching
⋅select
⋅dinner
⋅twisted
⋅hip
⋅wifes
⋅circle
⋅florida
⋅prep
⋅stool
⋅directed
⋅lived
⋅cutter
⋅newer
⋅transl
⋅bear
⋅pri
⋅nature
⋅meals
⋅german
##ks
⋅rides
⋅considered
⋅essentially
⋅rv
⋅brings
⋅events
##lled
⋅lever
⋅advertisement
⋅alert
⋅wrists
⋅remaining
##kin
⋅tummy
##pr
⋅viewing
##ensive
⋅arrives
⋅mr
##ank
⋅everytime
⋅snacks
⋅olds
⋅sty
⋅claimed
⋅humor
⋅modify
⋅journey
⋅scents
⋅fuel
⋅blowing
⋅dream
⋅created
⋅shapes
⋅blo
⋅french
##aces
⋅lifetime
##aced
⋅adjustments
⋅gb
⋅bean
⋅washers
⋅sofa
##ere
⋅comparable
⋅prin
⋅depot
⋅supportive
⋅fixture
⋅twin
⋅dual
⋅sport
⋅spaces
⋅clarity
⋅herself
⋅caution
⋅hammer
##etic
⋅swivel
⋅dose
##ason
⋅abuse
⋅sheds
⋅public
⋅wal
##istic
⋅mile
⋅anxiety
##ities
⋅flashing
⋅discount
⋅inse
⋅trail
⋅tim
⋅goodness
⋅occasional
⋅master
⋅slightest
⋅combo
⋅avail
⋅mixer
⋅applications
⋅gently
⋅whis
##eal
⋅vet
⋅scary
⋅laid
⋅decorative
⋅pliers
⋅foil
⋅camper
⋅recommendation
⋅advertise
⋅city
⋅vo
⋅span
##ification
⋅reel
⋅soup
⋅fiber
##ow
⋅reflect
⋅ne
⋅cri
⋅balloon
⋅grinding
⋅rounded
⋅thri
⋅lazy
⋅decal
⋅reminds
⋅knobs
⋅blows
⋅joint
##py
⋅pale
⋅stuffing
⋅boo
⋅stylus
⋅supplies
⋅september
⋅joints
⋅typing
⋅delay
⋅vibr
⋅palm
⋅describe
⋅partially
##iding
⋅retain
⋅fleece
⋅clicking
⋅lavender
⋅discover
⋅medical
⋅raw
⋅thinks
⋅speeds
⋅glitch
⋅recharg
⋅carb
⋅locally
##cc
⋅illumin
⋅roof
⋅sme
⋅polar
⋅investment
⋅ps
⋅wings
⋅plugging
⋅writes
⋅mot
⋅rips
⋅activity
⋅recover
⋅tick
⋅progress
⋅member
⋅goo
##ager
⋅bamboo
⋅gen
⋅cumbersome
⋅altern
⋅minimum
⋅gotta
⋅premium
⋅greatly
⋅respons
⋅versions
##aged
⋅semi
⋅mower
⋅expiration
⋅fountain
⋅treatment
⋅editing
⋅knowledge
⋅inc
⋅oversized
⋅electronics
##mon
⋅chewing
⋅deceiving
⋅beige
⋅scarf
##ley
⋅shouldnt
⋅ut
⋅effectively
##ss
⋅toothpaste
⋅bothered
⋅killed
⋅discolored
##af
⋅crate
⋅potty
⋅classy
⋅basement
##let
##ga
⋅grounds
##used
⋅afternoon
⋅removal
⋅usps
⋅reveal
⋅distracting
⋅crit
⋅confident
⋅dang
⋅softness
⋅presentation
⋅trans
⋅gps
⋅van
⋅thigh
⋅supposedly
⋅fading
⋅goggles
⋅border
⋅freeze
⋅hats
⋅clamps
⋅dots
⋅heck
⋅flicker
⋅teacher
⋅pouring
⋅gripe
⋅casing
⋅pres
⋅chin
⋅hum
⋅preference
##bled
⋅remover
⋅consuming
⋅disk
⋅drains
##ntly
##acing
⋅prices
⋅users
⋅recy
⋅kettle
⋅ceramic
⋅easter
⋅ann
⋅posts
⋅irritated
##for
⋅exist
⋅clippers
⋅simpl
⋅creating
##eless
⋅woke
⋅fro
⋅int
⋅importantly
⋅crotch
⋅journal
⋅tacky
##ppy
⋅binding
⋅weed
⋅guarantee
⋅attaching
⋅explanation
⋅mel
⋅explained
⋅south
⋅inaccurate
⋅complained
⋅popcorn
⋅trunk
⋅styles
⋅soles
##isters
⋅clogged
⋅exterior
##ury
⋅calf
⋅assembling
⋅precise
⋅sy
⋅rig
⋅arthritis
⋅elements
⋅watery
⋅hubby
⋅amazingly
⋅suggestion
##ones
##our
⋅intense
⋅bark
⋅disposable
⋅fuzzy
⋅descriptions
⋅cube
⋅hd
⋅rugs
##oops
⋅frustration
⋅foundation
⋅grate
⋅bell
⋅stem
⋅horror
⋅vitamins
⋅heated
⋅idk
⋅wound
⋅puff
⋅situations
##ilities
⋅stairs
⋅disconnected
⋅moistur
⋅sucked
⋅vitamin
⋅sloppy
##atable
⋅haha
⋅shooting
⋅fi
⋅refer
⋅toxic
⋅sour
##ously
⋅messages
⋅toddlers
⋅performs
⋅cop
⋅malfunction
⋅ages
⋅humidity
⋅carried
⋅easiest
⋅craft
⋅cutout
⋅adapt
⋅failure
⋅golf
⋅manufacture
⋅decorations
⋅production
##icy
⋅gem
⋅gaps
⋅acid
⋅mice
⋅centered
⋅omg
##osure
⋅repeat
⋅pos
⋅edition
⋅pur
⋅flops
⋅toward
⋅occasion
⋅ford
⋅occasions
⋅belts
⋅ray
⋅val
⋅wick
⋅names
⋅stations
⋅desktop
⋅patches
⋅fluid
⋅basis
⋅coin
⋅downloaded
⋅nightmare
⋅becoming
⋅keychain
⋅pear
##ational
⋅afterwards
⋅loaded
⋅rely
⋅ram
⋅repetitive
⋅indeed
⋅den
⋅teal
⋅heavily
⋅stretches
⋅routine
⋅loo
⋅rect
⋅stro
⋅accuracy
⋅snugly
⋅finishing
⋅hazard
⋅friday
⋅faint
⋅accommodate
⋅relax
##uct
⋅media
⋅debris
⋅lamps
⋅boobs
⋅artificial
⋅cookie
⋅align
⋅compet
⋅fre
⋅papers
⋅monday
⋅nobody
⋅useable
⋅pairing
⋅charcoal
⋅bracelets
⋅wre
⋅earth
##ook
⋅hopeful
⋅calling
##atives
⋅ladies
⋅gener
⋅costco
##iness
⋅chunks
⋅indic
⋅practically
⋅swimsuit
⋅hunt
⋅cuz
⋅hyd
⋅overwhelming
⋅aligned
⋅wraps
⋅silicon
⋅sauce
⋅neighbors
⋅slower
⋅threaded
⋅cooked
##agra
⋅mirrors
⋅himself
⋅eight
⋅bored
⋅pumps
##ids
##light
⋅shif
⋅substantial
⋅growth
⋅stocking
⋅spills
⋅pier
⋅stereo
##ze
⋅sony
⋅repeatedly
⋅ap
⋅peace
⋅cooker
⋅steamer
⋅dimmer
⋅stating
⋅command
⋅rail
⋅drug
⋅pores
⋅whit
⋅necessarily
##ne
⋅cry
⋅believable
⋅mugs
⋅cane
⋅rendering
⋅spraying
⋅absor
##anced
⋅anker
⋅ang
⋅pantry
##ring
⋅rapid
⋅chunk
⋅complex
⋅xmas
⋅joy
⋅ach
⋅ele
##umes
⋅survive
##agon
⋅deodorant
⋅obsessed
⋅encount
##act
##umbled
⋅organize
⋅repeated
⋅feeding
⋅redu
⋅remo
⋅lap
⋅ign
⋅flexibility
⋅pregnancy
##afe
##ster
⋅whoever
⋅universal
⋅wild
⋅skills
⋅springs
⋅dy
⋅stud
⋅toaster
⋅reconnect
⋅harsh
⋅bargain
##come
⋅disappear
⋅ded
⋅dumb
⋅produced
##nes
⋅tables
⋅sens
⋅balanced
⋅plane
⋅sample
⋅hotel
⋅warned
##cle
##irt
⋅blu
⋅sweaty
##imate
⋅colour
⋅q
⋅scene
⋅raise
##ear
⋅wool
⋅technology
⋅react
⋅creases
⋅unicorn
⋅suited
⋅shar
⋅closes
⋅unsure
⋅exception
⋅inconsistent
⋅modes
⋅masks
##fect
⋅barrel
⋅lately
⋅coats
⋅freezing
⋅robe
⋅mountain
##man
⋅beef
⋅feelings
⋅assortment
⋅orna
⋅watt
##ggy
⋅inv
⋅retract
##pan
⋅unnecessary
##ences
⋅skim
⋅shrunk
⋅stolen
⋅moments
⋅moisturizing
⋅fluke
⋅wed
⋅utensils
⋅transparent
⋅drama
⋅relaxing
⋅smud
⋅hardwood
##sen
⋅mothers
⋅undamaged
⋅thumbs
⋅rugged
⋅spoons
##end
⋅horn
⋅vegetables
##ively
##ten
⋅reusable
⋅yrs
⋅handful
⋅severe
⋅holidays
⋅unpleasant
⋅core
⋅lacks
⋅tact
⋅hadnt
⋅rooms
⋅electronic
⋅primary
⋅prone
⋅bet
⋅aux
⋅intend
⋅fourth
⋅unb
⋅temporary
⋅dresser
⋅disney
⋅soaking
⋅canopy
⋅decently
⋅discs
⋅dice
⋅hint
⋅clients
⋅itd
⋅sec
⋅nap
⋅sha
⋅hurting
##par
⋅remains
⋅metallic
⋅fulfill
##ped
⋅fra
⋅olive
⋅ash
⋅defects
⋅providing
⋅wrinkle
⋅dvds
⋅detached
⋅echo
⋅dd
##ives
##ique
⋅naturally
⋅heal
⋅satisfying
⋅cas
⋅adher
⋅almond
⋅ding
⋅ultra
##atch
⋅brilliant
##band
⋅student
⋅steal
⋅moldy
##ening
⋅visit
⋅soda
⋅minus
##oof
⋅crease
##ken
⋅est
⋅muscle
⋅vio
⋅terrific
⋅honda
⋅stretching
##ots
⋅frayed
⋅med
##bo
⋅spect
⋅jammed
⋅rubs
⋅aud
⋅dud
##oth
⋅kitty
⋅approximately
⋅squishy
⋅pig
⋅stinks
⋅rabbit
⋅acrylic
##tens
##ys
##ingly
⋅poop
⋅erase
⋅pile
⋅molds
⋅roughly
⋅collars
⋅fyi
⋅blankets
⋅bathing
⋅silent
##ood
⋅pushes
⋅monitors
⋅incre
⋅horizontal
⋅ham
##ha
⋅bleach
##aking
⋅regard
⋅prevents
⋅dem
##cri
⋅poke
⋅opposed
⋅facial
⋅activities
⋅schedule
⋅aid
⋅spinning
⋅grit
⋅distrib
⋅anytime
⋅gadget
##stick
⋅historical
⋅owner
⋅hea
⋅readings
⋅spice
⋅military
⋅sisters
⋅delayed
##ule
⋅tubing
⋅creative
⋅flame
⋅od
⋅scope
⋅alive
⋅computers
⋅disliked
⋅beds
⋅scrap
⋅grandkids
⋅saturday
⋅map
##ction
⋅updates
⋅horse
##cy
⋅somebody
⋅stea
⋅lif
⋅tale
⋅downfall
⋅restart
⋅parent
⋅incorrectly
⋅license
⋅searched
⋅blends
⋅envelopes
⋅damp
⋅sideways
##hip
⋅tom
⋅studs
⋅mud
⋅bones
⋅ya
⋅eyelashes
⋅knot
⋅barking
⋅bas
⋅matters
⋅mailed
⋅drawn
⋅delight
⋅mistakes
⋅adventure
⋅illustrations
⋅curious
⋅dialogue
⋅detach
⋅rat
⋅fighting
⋅displayed
⋅sto
##inted
⋅embarrassed
⋅buff
⋅tread
⋅goods
⋅puzzles
⋅weighted
⋅pm
⋅unbelievable
⋅superior
⋅steering
⋅squeez
⋅struggled
⋅pointless
⋅activate
⋅floating
⋅familiar
⋅synthetic
⋅potato
⋅withstand
##ionally
##row
##yal
##gy
⋅incomplete
⋅wor
⋅beats
⋅toyota
⋅scuff
⋅liquids
⋅chains
⋅headlights
⋅lastly
⋅jobs
⋅amazed
⋅coins
⋅angles
⋅crum
⋅spilling
⋅ped
⋅continuously
⋅engaging
⋅stopping
⋅heres
##back
⋅japan
⋅insp
⋅fee
⋅safely
⋅circles
⋅submit
⋅pointed
⋅breakfast
⋅maximum
⋅science
⋅ju
⋅refills
⋅guests
⋅earring
⋅separ
##rate
⋅magn
⋅complaining
⋅yarn
⋅reverse
⋅pitch
⋅sing
⋅hoses
⋅thera
⋅intern
⋅stability
⋅lame
##wal
##iting
⋅attempting
⋅flick
##her
⋅oper
⋅fuse
⋅ratings
⋅poster
⋅breasts
⋅heroine
⋅patience
⋅neutral
⋅adhesion
⋅petite
⋅hitch
##ads
⋅unf
⋅fiance
⋅acc
⋅remotes
⋅ladder
⋅liners
⋅escape
⋅household
⋅cling
##stood
⋅hospital
⋅shel
##inger
⋅vehicles
⋅dinosaur
⋅var
##angle
##bby
⋅intrig
⋅medic
⋅scra
##aded
⋅punct
⋅interface
##head
⋅slime
⋅blame
⋅sunday
⋅bus
##read
##aked
⋅tiles
⋅severely
##de
⋅continu
⋅hall
⋅strands
⋅pract
⋅anchor
⋅substance
⋅noises
⋅loosely
⋅prec
⋅rad
##ave
⋅answers
⋅smh
⋅anybody
⋅ce
⋅selected
⋅largest
⋅humidifier
⋅childrens
##gging
##pered
⋅craftsmanship
##hood
⋅circuit
⋅dropper
⋅favorites
⋅kink
⋅extensions
##berry
##ision
⋅players
⋅til
⋅scanner
⋅crib
⋅novels
⋅moderate
⋅blink
⋅bb
##cl
⋅crumbs
⋅microfiber
⋅honey
⋅angry
⋅broom
##ib
⋅measurement
⋅sess
⋅bows
⋅compress
⋅duct
⋅distorted
⋅aftertaste
##edi
##log
⋅related
⋅arr
⋅automatic
⋅locations
⋅lengths
⋅blonde
⋅brushing
⋅ghost
⋅afford
⋅vac
⋅lying
⋅shaking
⋅healing
⋅firmly
⋅bullet
⋅ru
⋅repack
⋅spool
⋅permanently
⋅rainbow
⋅weighs
⋅lag
⋅dying
⋅snor
⋅profess
##ool
⋅subtle
##amin
⋅artist
⋅ants
⋅rob
⋅located
⋅insoles
⋅church
⋅immediate
⋅pee
⋅fixing
⋅clog
⋅comparing
⋅dou
⋅speaking
⋅increased
⋅convin
⋅warn
⋅pray
⋅rev
⋅prongs
⋅fantasy
⋅shaver
⋅rom
⋅manufactured
⋅mosquito
⋅monthly
##urance
##ern
##ded
##ect
⋅sudden
⋅repurchase
⋅cinnamon
⋅chipping
⋅smoothies
⋅airpods
⋅sneakers
##cd
⋅tem
⋅catches
⋅batter
⋅paced
⋅storm
##ah
⋅magaz
⋅specs
⋅technical
⋅aroma
⋅ruin
##mo
⋅originals
⋅driveway
##ressed
⋅won
⋅combined
⋅decision
⋅themed
##arily
##iving
⋅unstable
⋅hy
⋅vibrate
⋅sockets
⋅flawlessly
⋅indoors
⋅cou
⋅alter
##orn
⋅versus
⋅looser
⋅machines
##iver
⋅theory
⋅virtually
⋅needles
⋅daylight
⋅motorcycle
##cial
⋅reported
⋅operated
⋅worthy
⋅bu
⋅conver
⋅styrofoam
⋅thousand
⋅entry
⋅million
⋅cheek
⋅fryer
⋅promise
⋅boxed
⋅reinstall
⋅trial
⋅owners
⋅flashes
⋅imagined
⋅failing
⋅cann
⋅struggling
⋅vinegar
⋅programming
⋅oddly
⋅upgraded
⋅tonight
##ival
⋅shredded
⋅stir
⋅extras
⋅runner
##ases
⋅calories
⋅watered
⋅depend
⋅otter
⋅flavored
⋅golden
⋅insulated
⋅reviewed
⋅fid
⋅inferior
⋅passenger
⋅layout
⋅fam
⋅sensors
⋅flickering
⋅overl
⋅homemade
⋅swap
⋅windy
⋅tennis
##oul
⋅confidence
⋅pissed
⋅prot
⋅walker
⋅conclusion
⋅coated
⋅pac
⋅forehead
⋅surprising
⋅accurately
⋅supplements
##mb
⋅curling
⋅communic
⋅magnifying
⋅eliminate
⋅smoking
⋅calm
⋅dissolve
⋅blocking
⋅inconvenience
⋅catching
⋅ms
⋅latest
##eak
⋅annoy
⋅alignment
⋅touches
##der
⋅reccomend
⋅prepare
⋅mush
⋅arrow
⋅comple
⋅skill
⋅ger
⋅performed
⋅magnification
⋅platform
⋅imag
##stairs
⋅sett
⋅allergies
⋅thr
⋅paste
⋅cork
⋅prov
⋅ads
⋅vari
⋅pitcher
⋅flakes
⋅knit
⋅issued
⋅popular
⋅mem
⋅pigment
⋅balm
⋅packet
⋅irritate
##bles
⋅generation
##ashed
⋅boil
⋅cheapest
⋅sparkly
##ifications
⋅shakes
⋅receipt
⋅recipient
⋅faith
⋅tedious
⋅relie
⋅breathe
⋅shorted
##ened
⋅perspective
⋅fleas
⋅premise
⋅grandsons
##bie
⋅blinking
⋅irritation
⋅bridge
⋅lux
⋅unw
⋅gam
⋅department
⋅frequent
⋅faces
⋅smoother
⋅ble
##icer
⋅elderly
⋅peels
⋅fraction
⋅bait
⋅wiggle
⋅fiction
⋅rive
⋅indicate
⋅broth
⋅lettering
⋅teenage
⋅pace
⋅listened
⋅grain
⋅sunscreen
⋅desper
⋅noticeably
⋅armp
⋅stakes
⋅enclosed
⋅darn
⋅compliment
⋅dolls
⋅washable
⋅wonders
⋅scooter
##aly
⋅contr
⋅exploded
⋅scented
⋅textured
⋅encour
⋅circulation
⋅anchors
⋅connectivity
⋅opportunity
⋅massager
⋅inspection
⋅gradu
⋅reflective
⋅altogether
⋅buckles
⋅completed
##ink
⋅scrubbing
⋅shipper
⋅shots
⋅pedal
⋅detergent
⋅communication
⋅gran
⋅advance
⋅treated
⋅rotating
⋅vivid
##arg
⋅murder
⋅whos
⋅potentially
##uction
⋅primarily
##inary
⋅del
⋅cheesy
⋅mass
⋅hor
##red
##ised
⋅diy
⋅separating
##gun
⋅dan
⋅legit
⋅resulting
⋅cancelled
##wh
⋅drilling
⋅survived
⋅damaging
⋅frankly
⋅circum
⋅investig
⋅sketch
⋅itch
##ey
⋅integr
⋅visual
⋅intermittently
##fully
⋅seek
⋅ingredient
⋅leaf
⋅positions
⋅ner
⋅grid
##inder
##ius
⋅waistband
⋅burg
⋅discomfort
⋅stitches
⋅seasons
⋅owning
⋅unwra
⋅intuitive
⋅partner
⋅headlight
⋅fuss
⋅temps
⋅u
⋅healthier
⋅jumping
⋅crafts
##paper
⋅sealing
⋅cherry
⋅bose
##vent
⋅nipple
⋅quieter
⋅america
⋅pleasure
⋅favors
⋅uplo
⋅merch
⋅publish
⋅presented
⋅enter
⋅und
##olog
⋅da
⋅cologne
⋅fingerprints
⋅veggies
⋅uv
⋅coil
⋅outs
⋅extender
⋅athletic
⋅imm
##tery
⋅wr
⋅gag
⋅descri
⋅tarn
⋅sea
⋅satisfaction
⋅roots
⋅bel
⋅researched
⋅spec
⋅scroll
⋅sam
##ident
⋅granted
⋅skipping
⋅figures
⋅planted
⋅calib
⋅sprays
⋅cond
⋅massive
⋅soothing
⋅dance
⋅tack
##uit
⋅cy
##utor
⋅crown
⋅exceeded
⋅sees
⋅trade
⋅lifted
⋅embarrassing
⋅urine
⋅imo
⋅positioned
⋅facts
⋅actors
⋅exam
⋅recognized
⋅unfold
⋅moto
⋅instru
⋅neatly
⋅repaired
⋅shark
⋅mechanical
##room
⋅clipped
⋅hr
⋅earpiece
⋅blast
⋅meter
⋅nause
⋅lite
⋅secret
⋅dispens
##arm
⋅bland
⋅mon
⋅grainy
##body
⋅strain
##imb
⋅existent
##ders
⋅hammock
⋅appro
⋅visor
⋅spins
##ims
⋅discontinued
⋅zoom
⋅zippered
⋅stunning
⋅sweating
⋅hundreds
⋅thoughts
⋅transition
⋅dough
##ums
⋅spine
⋅ish
⋅salon
⋅lau
⋅ult
⋅ant
⋅ent
⋅rainy
⋅shr
⋅spacious
⋅beeping
⋅burner
##ores
⋅cult
⋅aggrav
⋅aggressive
⋅airport
⋅fort
##eable
##ado
⋅offering
⋅eh
⋅cancelling
##ories
⋅eats
⋅parties
⋅fills
⋅crystals
⋅mart
##ush
##mos
⋅repe
⋅wo
⋅miracle
##ass
⋅underside
⋅insulation
⋅sturdiness
⋅object
⋅unusual
⋅lipstick
⋅disaster
##ump
⋅skipped
⋅clumps
⋅bundle
##mm
⋅opted
##ence
⋅tendency
⋅lu
⋅operating
⋅wobble
⋅cigarette
⋅streaming
##kel
⋅vents
⋅happily
⋅amounts
⋅swa
⋅reaching
⋅trimming
##ough
⋅af
##ix
##eter
⋅injury
⋅sleeps
⋅subscription
⋅clunky
##gg
⋅ken
⋅flaps
⋅glossy
##gee
⋅clumsy
⋅bond
⋅corn
##wl
⋅smudges
⋅ergonom
⋅spoke
##ateg
⋅grandchildren
⋅depends
⋅jumped
⋅fades
⋅partial
⋅insole
⋅cray
⋅hue
⋅underw
⋅imp
⋅emotional
⋅hype
⋅rubbery
⋅watering
⋅jaw
⋅unplugged
⋅begins
⋅sponges
⋅transmitter
##soft
⋅infant
⋅stevia
⋅duplic
⋅beer
⋅tights
⋅bites
⋅mer
⋅kitten
⋅restaur
⋅netflix
⋅vague
⋅stitched
⋅surprises
⋅paws
##ppoint
⋅execution
⋅muscles
⋅harm
⋅stood
⋅resin
⋅definite
⋅successful
⋅upcoming
⋅bounce
⋅refuse
⋅records
##hing
⋅spoil
##oon
⋅bronze
##earable
⋅rise
⋅elimin
⋅bikes
⋅laptops
⋅incense
##ops
##ily
⋅cp
⋅bringing
⋅canister
⋅disconnects
##ender
⋅seven
##ose
##foli
⋅lantern
⋅posture
⋅produces
⋅solder
⋅salad
⋅fork
##cul
⋅killer
⋅btw
⋅openings
⋅tumbler
⋅brain
⋅refreshing
##li
⋅silk
⋅senior
⋅cordless
⋅wiped
##ball
⋅substitute
##icle
⋅basics
⋅dispense
⋅aim
##ensation
##fer
##ux
⋅topic
##ishing
⋅experiences
⋅fathers
⋅mood
⋅threading
⋅hunting
⋅os
⋅hello
##thern
⋅cheep
⋅clever
⋅exhaust
⋅rele
⋅cloths
##gl
⋅dealer
⋅gau
##unk
⋅determine
⋅reservoir
⋅texas
⋅cous
##so
⋅jumps
⋅equal
⋅recl
⋅dram
##view
⋅cancer
⋅wavy
⋅leading
⋅grom
⋅indust
##use
⋅ty
⋅waisted
⋅eyel
⋅sandal
⋅compe
⋅sur
⋅sheath
⋅clay
⋅delivers
⋅amb
⋅boiling
⋅consum
⋅tote
⋅worries
##bell
⋅ob
⋅abs
⋅physically
⋅feathers
⋅fuzz
⋅polit
⋅moon
##bl
⋅expectation
⋅questionable
⋅appealing
##cue
⋅absorbs
⋅sharpener
⋅ris
⋅anticip
⋅overpowering
⋅menu
⋅pry
##ik
⋅deserve
⋅swelling
⋅humid
⋅pizza
⋅runny
⋅lover
⋅imperfect
⋅pumping
⋅knockoff
⋅cylinder
⋅keurig
##ules
⋅muff
⋅typos
⋅bru
⋅suggestions
⋅secondly
⋅melts
⋅ratchet
⋅nic
⋅approach
##sets
⋅citr
⋅brow
⋅compass
⋅sprout
⋅pegs
⋅warmth
⋅fool
⋅medicine
##market
##uring
⋅pouches
⋅studio
⋅nonetheless
⋅hundred
⋅cle
⋅california
⋅tug
⋅eng
⋅pleasing
⋅unst
##vert
⋅indicates
⋅farm
⋅touchscreen
⋅hoodie
⋅status
⋅fooled
⋅eq
⋅clasps
##aken
⋅scuffed
⋅remind
⋅wanna
⋅crossed
⋅av
##q
⋅cliff
⋅fraying
⋅ax
⋅hurry
⋅unreliable
⋅rare
⋅jell
##icing
⋅racks
##pled
⋅ident
⋅claw
⋅sonic
⋅commercial
##attach
⋅root
⋅faux
⋅veget
##ime
⋅achieve
⋅ord
⋅among
⋅holy
⋅continually
##ieces
⋅elbow
⋅tvs
⋅retri
⋅buzzing
⋅curves
⋅released
⋅dele
⋅panties
⋅weekly
⋅jerky
⋅kits
⋅warp
⋅recogn
⋅hom
⋅fond
##weight
##val
⋅intensity
⋅programs
##wn
⋅habit
⋅fray
⋅intermittent
⋅instructed
⋅tests
⋅zone
⋅finds
⋅ounce
⋅rusting
⋅torque
⋅dining
⋅reuse
##ese
##cases
⋅cruise
⋅clos
⋅bib
⋅apparent
⋅bills
⋅peach
⋅awkwardly
⋅particles
##ta
⋅sprink
⋅gut
⋅detection
⋅equivalent
⋅deceptive
⋅flipped
⋅affected
⋅firmware
##pected
⋅advantage
##cope
⋅clut
##ties
⋅relieve
⋅standards
##inished
⋅rusty
⋅lou
⋅wra
⋅hates
⋅traffic
⋅distort
⋅spirit
⋅cloud
⋅workmanship
⋅component
⋅util
⋅introdu
⋅pow
⋅cereal
⋅wat
⋅cure
⋅tattoo
⋅fasteners
⋅coarse
⋅quilt
⋅iv
⋅brushed
⋅washings
⋅tam
⋅settle
⋅rushed
⋅reli
⋅figuring
⋅dissip
##he
##ipped
##gged
⋅library
##ees
⋅bees
⋅perf
⋅compressor
⋅police
##ark
⋅ve
⋅dragon
⋅bunny
⋅ounces
⋅sharpening
⋅guns
⋅funky
⋅rattle
⋅landscape
⋅orient
⋅narr
⋅depicted
⋅sometime
⋅aquarium
⋅uncle
⋅nine
⋅continuous
⋅ssd
⋅refuses
⋅squirrels
⋅chem
⋅tangles
⋅kidd
⋅summ
⋅necklaces
⋅sparkle
⋅notified
⋅brim
⋅mus
⋅outcome
⋅clipp
⋅spicy
⋅glance
⋅expert
⋅satisfactory
⋅episode
⋅creamy
⋅myster
##resp
⋅drum
⋅concent
⋅methods
##eaking
⋅bold
⋅loads
##ff
⋅judge
⋅flawed
⋅headrest
⋅unknown
⋅dell
⋅mildew
##fic
⋅intriguing
⋅surely
⋅exercises
⋅headaches
⋅frequ
⋅torch
⋅drywall
⋅nintendo
⋅applicator
##more
⋅killing
⋅airpl
⋅graph
⋅voltage
⋅moms
⋅waffle
⋅rhinest
⋅route
⋅experiment
⋅goal
⋅smelly
⋅lake
⋅gripping
⋅eyeliner
⋅trimmed
⋅latches
⋅vegan
⋅carries
⋅liter
⋅feb
⋅confirm
⋅la
⋅spigen
⋅chevy
⋅configur
⋅pups
⋅decorate
⋅lanyard
⋅streaks
⋅clue
##istry
⋅capability
⋅battle
⋅snags
⋅floppy
⋅econom
⋅syrup
⋅prescription
⋅informed
##ject
⋅pickup
⋅disintegr
⋅someones
⋅concerns
⋅mit
⋅suits
⋅successfully
⋅alas
⋅trucks
⋅behavior
⋅electricity
⋅assistance
##pen
##dge
⋅strand
⋅bladder
⋅soo
⋅sounding
⋅delete
⋅lowes
⋅programmed
⋅monster
⋅headboard
⋅excessive
⋅appli
⋅ther
⋅destroy
⋅paints
⋅challen
##por
⋅wobbles
##otch
⋅chewer
⋅globe
⋅nipples
⋅transaction
⋅folders
##sey
##port
⋅san
⋅cycles
⋅obnoxious
##mets
##ort
⋅ec
⋅unbox
##cling
⋅educ
⋅whose
⋅markings
⋅friction
⋅updating
⋅spices
⋅ironing
⋅espresso
⋅tanks
⋅zipped
⋅identify
⋅readjust
⋅eyebrows
⋅pom
⋅jer
⋅flew
⋅honor
⋅flare
⋅poss
⋅peoples
##po
⋅salty
##lla
⋅fascinating
⋅tower
⋅discolor
⋅relaxed
⋅deformed
⋅bul
⋅dusty
⋅fingern
⋅muffled
⋅loading
⋅miner
##case
⋅gopro
##cast
##iping
⋅tweezers
⋅cramps
⋅nutr
⋅overseas
⋅epoxy
⋅santa
##ners
⋅examples
⋅deserves
##ashing
⋅marketing
⋅bacon
⋅contacts
⋅accessible
⋅nightstand
⋅dam
⋅engage
⋅ignored
⋅dates
⋅filler
⋅binder
⋅entertainment
⋅employ
⋅insane
##gh
⋅scrape
##roc
⋅focused
⋅frizzy
⋅spoiled
⋅calves
⋅corrected
##piece
⋅duck
⋅div
⋅leakage
⋅crank
⋅logitech
⋅unz
⋅stripes
⋅relig
⋅exceptional
⋅carbon
⋅emb
⋅yummy
##gr
⋅tapes
⋅rent
⋅depress
⋅aesthetically
⋅aa
⋅dense
⋅chances
⋅vintage
⋅interfer
⋅cour
⋅reapp
⋅neg
⋅default
⋅gifted
⋅sandwich
⋅chihuahua
⋅shred
⋅strawberry
⋅rests
⋅sorts
⋅lash
##gly
⋅blower
⋅freely
⋅spir
⋅ratt
⋅powers
⋅freezes
⋅temperatures
⋅noticing
⋅official
⋅es
⋅classes
⋅mil
⋅blocked
⋅pud
##phone
⋅dissol
⋅screwing
⋅lifestyle
##rets
⋅patient
⋅generous
⋅pell
⋅reboot
⋅organization
##istle
⋅bedding
⋅stopper
⋅bomb
##lence
⋅yeti
⋅breathing
⋅whereas
⋅branches
⋅pricing
⋅peppermint
⋅plans
⋅probiot
⋅occurred
⋅fixtures
⋅slipper
⋅objects
⋅zipl
⋅pol
⋅cushioning
⋅spa
⋅plun
⋅witch
⋅systems
⋅moth
##oodle
⋅bumped
⋅sched
⋅sewed
⋅inspect
⋅hers
⋅loc
##ana
⋅dil
⋅symptoms
⋅poly
⋅stems
##iced
⋅accepted
⋅drawstring
⋅fashioned
##ange
⋅entertained
⋅slice
⋅produ
##using
⋅remedy
⋅sells
⋅bagg
⋅bub
⋅recomend
⋅theses
⋅sweatshirt
⋅filament
⋅romantic
##reme
⋅ineffective
⋅reviewing
⋅capable
⋅pause
⋅frost
##ageable
⋅allen
##nam
⋅fem
⋅dart
⋅booklet
⋅disassemble
⋅shears
⋅cand
⋅cupcakes
⋅messing
⋅cloudy
⋅gloss
⋅mixes
⋅asian
⋅differences
⋅crash
⋅upsetting
⋅abrupt
⋅occur
⋅rush
##usion
⋅bearing
⋅john
⋅flu
⋅detector
⋅neon
⋅gar
⋅garmin
##aging
⋅linen
⋅disconnecting
⋅robust
⋅chick
⋅rounds
⋅garment
⋅navigate
⋅resort
⋅bre
⋅psi
⋅convers
⋅scar
⋅trapped
##tles
⋅fittings
⋅cleanser
⋅sleeper
⋅grad
⋅hydro
⋅disabled
⋅rental
⋅terri
⋅ipod
##izing
⋅decre
⋅rails
⋅cow
⋅xr
⋅sack
⋅gums
##ca
⋅mailing
⋅chews
⋅kay
⋅engaged
⋅supporting
⋅bay
⋅dividers
⋅digest
⋅bearings
⋅organizing
⋅interference
⋅tee
##anted
⋅plantar
⋅itching
⋅puppies
⋅rotation
##ller
⋅resour
⋅collapse
⋅capture
⋅lessons
⋅moist
⋅cutters
⋅smoker
⋅sna
##osition
⋅concert
##bes
##inter
⋅genre
⋅conversation
⋅decrease
⋅trusted
⋅unt
⋅manip
⋅race
##kee
⋅anxious
##pad
⋅codes
⋅tune
⋅womans
⋅staples
⋅exchanged
⋅throat
⋅gather
⋅fest
⋅interfere
⋅hollow
⋅pond
⋅bound
⋅jum
⋅turner
⋅gummies
##play
⋅justice
⋅flatten
⋅kn
⋅stage
⋅gorilla
⋅stitch
##ume
##pes
⋅champ
⋅prong
⋅resulted
##arms
⋅vendors
⋅flipping
⋅splitter
⋅humming
⋅deb
##aze
⋅processed
⋅bothers
##ils
⋅sequel
⋅uk
⋅yards
##ever
⋅opaque
⋅requiring
##imp
⋅competit
⋅talked
⋅cowork
⋅decals
⋅shadow
⋅trainer
⋅drove
⋅crunchy
⋅experiencing
##raction
⋅hike
⋅unopened
##ung
⋅costly
⋅beside
⋅deter
⋅sweep
⋅pendant
⋅dev
⋅exceptionally
⋅crew
⋅hesitate
⋅mixture
##pp
⋅diarrhea
⋅arc
⋅shad
⋅troubleshooting
##over
##ouch
⋅vertically
⋅granddaughters
⋅tremend
⋅inspiration
⋅stamps
⋅deeply
⋅thermostat
⋅consumer
⋅yuck
⋅collects
⋅branded
⋅spandex
⋅polished
##ull
⋅expense
⋅molded
⋅gal
⋅deterior
⋅chosen
⋅emotions
⋅lego
##other
⋅pony
⋅splinter
⋅outfits
⋅cds
⋅worker
⋅cosmetic
##ism
⋅versa
⋅chase
⋅unsatisfied
⋅bells
⋅groom
⋅jug
⋅diff
⋅hel
⋅caffeine
##order
⋅films
⋅lays
⋅finicky
⋅ruins
⋅teaching
⋅flask
⋅knots
⋅velvet
⋅unrealistic
⋅editor
⋅answered
⋅cellphone
⋅rifle
⋅jan
⋅unh
⋅advised
⋅mall
##asters
##ek
⋅clo
⋅digging
##nut
⋅bio
⋅impress
⋅guaranteed
##bling
⋅razors
⋅steep
⋅intake
⋅advert
⋅maintenance
⋅rib
⋅clicked
⋅jig
⋅reduction
⋅bombs
⋅curvy
⋅garlic
##ulate
⋅gradually
⋅hous
⋅hoop
⋅throws
⋅counterfeit
⋅wedge
⋅accompl
⋅earphone
⋅discuss
##idence
⋅slit
##ulent
⋅shaker
⋅sneak
⋅flags
⋅valuable
##une
⋅flattened
##gus
⋅york
⋅ignore
⋅grammar
⋅photography
⋅wiping
⋅stab
⋅pat
⋅football
##nch
⋅documents
⋅mich
⋅suffer
⋅determined
⋅phillips
⋅helium
⋅engra
⋅trashed
⋅disappeared
⋅vi
⋅laughed
⋅passion
##oups
⋅fabrics
⋅waking
⋅talent
⋅cham
⋅ter
##ith
⋅score
⋅unused
##ibs
⋅fibers
⋅wtf
⋅rattling
⋅det
⋅novelty
⋅expire
##lessly
⋅reminded
⋅flowy
⋅basketball
⋅refunds
⋅blouse
⋅management
⋅longest
⋅wigs
⋅lumpy
⋅nurse
⋅reinforce
##argo
⋅meeting
⋅services
⋅coll
⋅controlled
⋅chef
⋅hawai
⋅dome
⋅flour
⋅tossing
⋅iphones
⋅specially
⋅sequ
⋅spikes
⋅pret
⋅proced
⋅pajam
⋅wearable
⋅caramel
##wood
⋅brewing
⋅poo
##eth
⋅grooves
⋅mak
⋅wherever
⋅collector
⋅corro
⋅shall
⋅cro
⋅nursery
⋅freaking
⋅flawless
⋅stat
##rel
⋅textbook
⋅shepher
⋅posting
⋅activated
⋅crafted
⋅mow
##uing
⋅volt
##ws
##tern
⋅cot
⋅bask
⋅frag
##box
##ipe
⋅subs
##ube
⋅thorough
##ev
##pend
##ergy
⋅sin
##ored
##ites
##osed
⋅spr
##astic
##ilar
⋅scen
⋅reinfor
##isting
##roid
⋅christ
##lus
##ai
##vy
⋅activ
⋅relations
⋅specif
##izer
⋅adv
##ived
⋅advent
⋅autom
⋅comm
⋅avo
##essed
##enc
⋅mater
⋅vol
⋅buzz
⋅tit
##ower
##rupt
⋅accom
##ology
⋅spo
##elt
##no
⋅flor
##iet
⋅sch
⋅therm
⋅ware
##ctor
##ades
⋅conc
⋅introd
⋅mill
⋅blur
##ich
##attered
##ato
⋅lic
⋅bund
⋅unders
##aser
⋅exce
##ison
⋅swe
⋅por
##verage
⋅scre
##ants
##ipes
##ound
⋅aff
##born
##encil
⋅cru
⋅bind
⋅disp
##hes
⋅ny
##ester
⋅bor
##ittle
⋅ep
⋅frizz
⋅commun
⋅relative
⋅destro
⋅supp
##ind
⋅pun
⋅arri
⋅ple
⋅surv
⋅forg
⋅explan
⋅crunch
##iction
⋅whe
##atur
##ucks
##nted
⋅aqu
⋅resp
⋅chal
##lass
⋅mach
⋅episod
⋅pie
⋅strugg
⋅config
⋅emot
##ax
##edy
##ister
⋅marking
⋅dest
⋅yog
⋅smo
##aster
##rew
⋅navig
⋅gre
##aps
##alent
⋅satisf
⋅struct
##ote
##off
##uses
##uss
##ific
⋅upgr
⋅aut
⋅moder
⋅writ
⋅downlo
⋅distract
⋅oct
⋅aesth
⋅choo
⋅gir
##nth
⋅defe
##do
⋅appeal
##ee
⋅troubles
##que
##ially
##rier
⋅appropri
⋅cin
##plug
##zzles
⋅eas
⋅contro
⋅unl
⋅ket
⋅chan
⋅glo
##ails
⋅fle
##ulation
##ho
⋅tow
⋅tong
⋅recie
⋅glit
⋅sept
##esh
##unction
⋅cris
⋅esp
##iest
##con
⋅priv
##ron
##ras
⋅fac
⋅ot
⋅ext
##ili
##ask
⋅formul
⋅shak
⋅doub
⋅fry
⋅confir
##ult
⋅photograph
⋅necess
⋅exerc
##ney
##lection
⋅partic
##ents
##quate
⋅chr
⋅gall
⋅birth
##ntal
⋅wrink
⋅rin
##ution
⋅inj
⋅dep
⋅encl
⋅circ
⋅disassem
##fe
##pri
##stall
⋅squir
⋅cabin
⋅syn
⋅horizo
##itive
##antly
⋅hesit
⋅satur
⋅recei
⋅spac
⋅bum
##cess
⋅incl
⋅cu
⋅bal
##oop
⋅concer
⋅dro
⋅ade
⋅rubb
##xic
##ooked
⋅pli
##min
⋅squish
⋅bt
⋅pal
⋅uncom
##ality
⋅dur
##akes
⋅diss
##asse
##ushing
##resso
##istles
##iff
##ivers
⋅approx
##na
⋅doc
##lers
⋅overs
##fort
⋅fore
⋅peg
##mmed
##ren
⋅danger
##ients
##ton
⋅prob
⋅render
⋅sor
##iring
##ference
⋅disgust
⋅disa
⋅coff
⋅ye
##app
##ience
⋅incom
##uch
⋅lin
##ipping
##blem
##ker
⋅exte
⋅inform
⋅tempor
⋅shear
##ague
⋅eyebrow
⋅gramm
##istent
⋅offic
⋅tiss
##aught
##rest
⋅appreci
##ara
⋅versat
⋅nove
##ng
##zy
##rib
##sent
⋅lat
⋅empt
##ugg
⋅ke
⋅gask
⋅jewel
##ther
⋅mosquit
⋅cos
##neath
##mark
##wards
⋅sweats
⋅transmit
##lent
⋅groo
⋅arthrit
⋅streak
##od
##aw
⋅hus
##otes
⋅diffus
⋅hid
##icky
##ether
⋅carp
##ivity
##sd
##we
⋅tumb
⋅spig
⋅som
⋅invol
##urb
##ef
⋅hur
⋅alex
⋅obs
##pens
⋅tex
##house
##ift
##ension
⋅cupc
⋅bigg
⋅anim
##acy
##gin
⋅prof
##br
⋅fig
##den
⋅compan
⋅dece
##ersome
⋅je
⋅exch
##etch
⋅origin
⋅cig
##selves
⋅sau
##fill
##hold
##urn
##erence
##xy
##ensity
⋅mob
⋅mos
⋅quest
##erg
⋅toothp
##ew
⋅wob
⋅import
##tain
##oms
⋅expl
⋅ip
##rand
##fo
##aching
##lain
⋅const
⋅col
##pro
##tch
##athers
⋅disli
⋅squee
⋅answ
⋅ador
##xt
##bers
⋅chocol
⋅pix
##atically
##lon
⋅incor
⋅ske
##lies
##whel
##ords
⋅num
⋅screwdri
⋅legg
##ulated
##edit
##gra
##get
##resent
⋅rever
⋅dv
⋅atte
⋅nam
##ctions
⋅mal
⋅scro
##dd
##atisf
⋅op
⋅bene
⋅mult
⋅tast
⋅scal
##ruct
⋅aesthet
⋅ba
##umps
⋅sle
⋅x
##lf
##iber
##how
##lied
##iety
##wise
⋅stre
##ork
##met
##atible
⋅branch
⋅stor
⋅fing
⋅fut
⋅rece
##igible
⋅groc
##amel
⋅incons
##illy
##acle
⋅potent
⋅descript
##mes
##charg
⋅exceed
##action
⋅tang
##vice
##eri
##cription
⋅irrit
##oun
⋅unbelie
⋅occ
##irty
⋅resist
##ustr
⋅cush
##ouse
##sp
##hirt
##ought
⋅waff
⋅hop
⋅grandchild
⋅rh
##print
##ibly
##amps
##erry
##cept
##ral
⋅mi
##ization
⋅webs
##vet
⋅vegg
##bly
⋅lim
##lets
##oting
##llow
##mit
⋅horri
##itions
##llent
##oma
⋅organ
⋅cub
⋅unnecess
##phones
⋅assort
##cur
⋅matt
⋅ans
##iling
##az
##llers
##ointed
⋅unre
⋅warra
##lves
##iot
##fortable
##assem
⋅gi
##vices
##itch
⋅shap
⋅combin
⋅repurch
⋅beh
⋅typ
##ogue
⋅eu
##imal
⋅cosmet
⋅resid
⋅vide
⋅illustr
⋅dispos
##att
⋅sod
##ale
⋅alb
⋅wip
##pods
##ustom
⋅aug
##erv
⋅quar
⋅resol
⋅emerg
##stand
##itional
⋅kno
⋅wee
⋅flims
##vable
⋅jew
⋅sams
##ero
##rant
⋅utens
⋅haz
⋅fascin
⋅pon
⋅bam
⋅lem
⋅tal
##night
⋅clar
##gent
⋅lump
##uc
##ught
⋅raz
⋅dissap
##cho
⋅sciss
##unate
##abled
##gon
⋅journ
##ild
⋅advant
⋅fri
⋅exec
⋅pred
⋅targ
⋅americ
##eady
⋅sturd
⋅hu
##rance
⋅zipp
##ih
##antic
⋅masc
##ame
⋅vers
##icted
⋅achie
⋅knowled
⋅swive
⋅guit
##ffic
⋅overwhel
⋅cigaret
##ree
##ccess
⋅tot
⋅accommod
##idge
##lt
⋅photogra
⋅pend
⋅explo
⋅thermom
##ables
⋅environ
⋅entertain
##itary
##rent
##arse
⋅langu
⋅substant
⋅foc
⋅applic
⋅ted
##ird
##ield
⋅init
⋅unus
⋅happ
⋅repet
##cer
⋅troublesho
##thing
##ital
⋅opin
⋅deser
⋅mir
##imes
⋅shep
⋅furn
⋅misle
⋅instruct
##ikes
⋅anten
⋅spong
##actory
⋅bey
##ata
⋅quant
⋅purch
⋅phys
##zzle
⋅behav
⋅lands
##ross
⋅intro
##ffe
##oy
⋅jud
⋅vend
⋅unreal
⋅toile
##lic
⋅fauc
⋅reme
⋅umbre
##mbre
⋅slee
⋅bec
⋅pers
⋅vine
⋅vel
⋅mor
##izz
⋅clou
⋅cram
##bit
##vin
##hol
⋅nur
⋅plat
##isy
##arch
##proof
⋅calend
##lish
##ilt
##rete
##stery
⋅ol
⋅mur
##bon
⋅reve
⋅lan
##aint
⋅opportun
⋅wid
##rels
⋅construct
##gar
⋅slipp
##rown
⋅sil
⋅hing
⋅adhes
⋅histor
##ushed
⋅exchan
⋅transpare
⋅nar
##een
##tc
⋅tor
##pare
⋅scr
##mi
##iliar
##aque
##top
⋅hass
⋅reserv
##yle
⋅blond
⋅pub
⋅rap
##uable
⋅lad
⋅cit
##ior
⋅dre
⋅predict
##unch
⋅overpower
⋅norm
⋅hon
##cre
⋅refriger
##function
⋅yea
⋅alth
##com
⋅assum
⋅envelop
##ipl
##ght
⋅prem
##ifying
⋅comf
##ond
##sem
⋅scoot
##ota
⋅recip
⋅hol
⋅determ
⋅alumin
##ufact
##tering
⋅natur
##lex
⋅cere
##eez
⋅rebo
⋅prote
##form
##erc
⋅ens
⋅manufact
⋅heav
⋅lea
##esy
⋅fib
⋅swims
⋅passeng
⋅bot
##istency
⋅gard
##arsh
⋅dut
⋅liqu
⋅surf
##ife
##ancy
⋅lear
⋅progra
⋅bab
⋅anch
⋅iss
⋅desp
⋅vitam
⋅supple
⋅appre
⋅contin
⋅differ
⋅discontin
⋅rout
##coming
##elie
⋅sooth
⋅shipp
##col
##asy
##ament
##pect
⋅chihuahu
⋅trad
##ween
##pport
⋅ey
##open
##ept
⋅stun
⋅sever
##right
⋅kitch
⋅ide
##ope
⋅equ
##ground
⋅sque
⋅compli
##igh
⋅eleg
##bin
⋅bon
⋅slo
